{
  "version": "1.0",
  "truncation": null,
  "padding": null,
  "added_tokens": [
    {
      "id": 0,
      "content": "\u0000",
      "single_word": false,
      "lstrip": false,
      "rstrip": false,
      "normalized": false,
      "special": true
    },
    {
      "id": 1,
      "content": "\u0001",
      "single_word": false,
      "lstrip": false,
      "rstrip": false,
      "normalized": false,
      "special": true
    },
    {
      "id": 2,
      "content": "\u0002",
      "single_word": false,
      "lstrip": false,
      "rstrip": false,
      "normalized": false,
      "special": true
    },
    {
      "id": 3,
      "content": "\u0003",
      "single_word": false,
      "lstrip": false,
      "rstrip": false,
      "normalized": false,
      "special": true
    },
    {
      "id": 4,
      "content": "\u0004",
      "single_word": false,
      "lstrip": false,
      "rstrip": false,
      "normalized": false,
      "special": true
    },
    {
      "id": 5000,
      "content": "\u000b",
      "single_word": false,
      "lstrip": false,
      "rstrip": false,
      "normalized": true,
      "special": false
    },
    {
      "id": 5001,
      "content": "\f",
      "single_word": false,
      "lstrip": false,
      "rstrip": false,
      "normalized": true,
      "special": false
    },
    {
      "id": 5002,
      "content": "\r",
      "single_word": false,
      "lstrip": false,
      "rstrip": false,
      "normalized": true,
      "special": false
    },
    {
      "id": 5003,
      "content": "Ɯ",
      "single_word": false,
      "lstrip": false,
      "rstrip": false,
      "normalized": true,
      "special": false
    },
    {
      "id": 5004,
      "content": " ",
      "single_word": false,
      "lstrip": false,
      "rstrip": false,
      "normalized": true,
      "special": false
    },
    {
      "id": 5005,
      "content": "",
      "single_word": false,
      "lstrip": false,
      "rstrip": false,
      "normalized": true,
      "special": false
    },
    {
      "id": 5006,
      "content": "\n",
      "single_word": false,
      "lstrip": false,
      "rstrip": false,
      "normalized": true,
      "special": false
    },
    {
      "id": 5007,
      "content": "Ǧ",
      "single_word": false,
      "lstrip": false,
      "rstrip": false,
      "normalized": true,
      "special": false
    },
    {
      "id": 5008,
      "content": "\t",
      "single_word": false,
      "lstrip": false,
      "rstrip": false,
      "normalized": true,
      "special": false
    }
  ],
  "normalizer": null,
  "pre_tokenizer": {
    "type": "Whitespace"
  },
  "post_processor": null,
  "decoder": null,
  "model": {
    "type": "BPE",
    "dropout": null,
    "unk_token": null,
    "continuing_subword_prefix": null,
    "end_of_word_suffix": null,
    "fuse_unk": false,
    "byte_fallback": false,
    "vocab": {
      "\u0000": 0,
      "\u0001": 1,
      "\u0002": 2,
      "\u0003": 3,
      "\u0004": 4,
      "\u0005": 5,
      "\u0006": 6,
      "\u0007": 7,
      "\b": 8,
      "\u000e": 9,
      "\u000f": 10,
      "\u0010": 11,
      "\u0011": 12,
      "\u0012": 13,
      "\u0013": 14,
      "\u0014": 15,
      "\u0015": 16,
      "\u0016": 17,
      "\u0017": 18,
      "\u0018": 19,
      "\u0019": 20,
      "\u001a": 21,
      "\u001b": 22,
      "\u001c": 23,
      "\u001d": 24,
      "\u001e": 25,
      "\u001f": 26,
      "!": 27,
      "\"": 28,
      "#": 29,
      "$": 30,
      "%": 31,
      "&": 32,
      "'": 33,
      "(": 34,
      ")": 35,
      "*": 36,
      "+": 37,
      ",": 38,
      "-": 39,
      ".": 40,
      "/": 41,
      "0": 42,
      "1": 43,
      "2": 44,
      "3": 45,
      "4": 46,
      "5": 47,
      "6": 48,
      "7": 49,
      "8": 50,
      "9": 51,
      ":": 52,
      ";": 53,
      "<": 54,
      "=": 55,
      ">": 56,
      "?": 57,
      "@": 58,
      "A": 59,
      "B": 60,
      "C": 61,
      "D": 62,
      "E": 63,
      "F": 64,
      "G": 65,
      "H": 66,
      "I": 67,
      "J": 68,
      "K": 69,
      "L": 70,
      "M": 71,
      "N": 72,
      "O": 73,
      "P": 74,
      "Q": 75,
      "R": 76,
      "S": 77,
      "T": 78,
      "U": 79,
      "V": 80,
      "W": 81,
      "X": 82,
      "Y": 83,
      "Z": 84,
      "[": 85,
      "\\": 86,
      "]": 87,
      "^": 88,
      "_": 89,
      "`": 90,
      "a": 91,
      "b": 92,
      "c": 93,
      "d": 94,
      "e": 95,
      "f": 96,
      "g": 97,
      "h": 98,
      "i": 99,
      "j": 100,
      "k": 101,
      "l": 102,
      "m": 103,
      "n": 104,
      "o": 105,
      "p": 106,
      "q": 107,
      "r": 108,
      "s": 109,
      "t": 110,
      "u": 111,
      "v": 112,
      "w": 113,
      "x": 114,
      "y": 115,
      "z": 116,
      "{": 117,
      "|": 118,
      "}": 119,
      "~": 120,
      "": 121,
      "": 122,
      "": 123,
      "": 124,
      "": 125,
      "": 126,
      "": 127,
      "": 128,
      "": 129,
      "": 130,
      "": 131,
      "": 132,
      "": 133,
      "": 134,
      "": 135,
      "": 136,
      "": 137,
      "": 138,
      "": 139,
      "": 140,
      "": 141,
      "": 142,
      "": 143,
      "": 144,
      "": 145,
      "": 146,
      "": 147,
      "": 148,
      "": 149,
      "": 150,
      "": 151,
      "": 152,
      "¡": 153,
      "¢": 154,
      "£": 155,
      "¤": 156,
      "¥": 157,
      "¦": 158,
      "§": 159,
      "¨": 160,
      "©": 161,
      "ª": 162,
      "«": 163,
      "¬": 164,
      "­": 165,
      "®": 166,
      "¯": 167,
      "°": 168,
      "±": 169,
      "²": 170,
      "³": 171,
      "´": 172,
      "µ": 173,
      "¶": 174,
      "·": 175,
      "¸": 176,
      "¹": 177,
      "º": 178,
      "»": 179,
      "¼": 180,
      "½": 181,
      "¾": 182,
      "¿": 183,
      "À": 184,
      "Á": 185,
      "Â": 186,
      "Ã": 187,
      "Ä": 188,
      "Å": 189,
      "Æ": 190,
      "Ç": 191,
      "È": 192,
      "É": 193,
      "Ê": 194,
      "Ë": 195,
      "Ì": 196,
      "Í": 197,
      "Î": 198,
      "Ï": 199,
      "Ð": 200,
      "Ñ": 201,
      "Ò": 202,
      "Ó": 203,
      "Ô": 204,
      "Õ": 205,
      "Ö": 206,
      "×": 207,
      "Ø": 208,
      "Ù": 209,
      "Ú": 210,
      "Û": 211,
      "Ü": 212,
      "Ý": 213,
      "Þ": 214,
      "ß": 215,
      "à": 216,
      "á": 217,
      "â": 218,
      "ã": 219,
      "ä": 220,
      "å": 221,
      "æ": 222,
      "ç": 223,
      "è": 224,
      "é": 225,
      "ê": 226,
      "ë": 227,
      "ì": 228,
      "í": 229,
      "î": 230,
      "ï": 231,
      "ð": 232,
      "ñ": 233,
      "ò": 234,
      "ó": 235,
      "ô": 236,
      "õ": 237,
      "ö": 238,
      "÷": 239,
      "ø": 240,
      "ù": 241,
      "ú": 242,
      "û": 243,
      "ü": 244,
      "ý": 245,
      "þ": 246,
      "ÿ": 247,
      "Ā": 248,
      "ā": 249,
      "Ă": 250,
      "ă": 251,
      "Ą": 252,
      "ą": 253,
      "Ć": 254,
      "ć": 255,
      "Ĉ": 256,
      "ĉ": 257,
      "Ċ": 258,
      "ċ": 259,
      "Č": 260,
      "č": 261,
      "Ď": 262,
      "ď": 263,
      "Đ": 264,
      "đ": 265,
      "Ē": 266,
      "ē": 267,
      "Ĕ": 268,
      "ĕ": 269,
      "Ė": 270,
      "ė": 271,
      "Ę": 272,
      "ę": 273,
      "Ě": 274,
      "ě": 275,
      "Ĝ": 276,
      "ĝ": 277,
      "Ğ": 278,
      "ğ": 279,
      "Ġ": 280,
      "ġ": 281,
      "Ģ": 282,
      "ģ": 283,
      "Ĥ": 284,
      "ĥ": 285,
      "Ħ": 286,
      "ħ": 287,
      "Ĩ": 288,
      "ĩ": 289,
      "Ī": 290,
      "ī": 291,
      "Ĭ": 292,
      "ĭ": 293,
      "Į": 294,
      "į": 295,
      "İ": 296,
      "ı": 297,
      "Ĳ": 298,
      "ĳ": 299,
      "Ĵ": 300,
      "ĵ": 301,
      "Ķ": 302,
      "ķ": 303,
      "ĸ": 304,
      "Ĺ": 305,
      "ĺ": 306,
      "Ļ": 307,
      "ļ": 308,
      "Ľ": 309,
      "ľ": 310,
      "Ŀ": 311,
      "ŀ": 312,
      "Ł": 313,
      "ł": 314,
      "Ń": 315,
      "ń": 316,
      "Ņ": 317,
      "ņ": 318,
      "Ň": 319,
      "ň": 320,
      "ŉ": 321,
      "Ŋ": 322,
      "ŋ": 323,
      "Ō": 324,
      "ō": 325,
      "Ŏ": 326,
      "ŏ": 327,
      "Ő": 328,
      "ő": 329,
      "Œ": 330,
      "œ": 331,
      "Ŕ": 332,
      "ŕ": 333,
      "Ŗ": 334,
      "ŗ": 335,
      "Ř": 336,
      "ř": 337,
      "Ś": 338,
      "ś": 339,
      "Ŝ": 340,
      "ŝ": 341,
      "Ş": 342,
      "ş": 343,
      "Š": 344,
      "š": 345,
      "Ţ": 346,
      "ţ": 347,
      "Ť": 348,
      "ť": 349,
      "Ŧ": 350,
      "ŧ": 351,
      "Ũ": 352,
      "ũ": 353,
      "Ū": 354,
      "ū": 355,
      "Ŭ": 356,
      "ŭ": 357,
      "Ů": 358,
      "ů": 359,
      "Ű": 360,
      "ű": 361,
      "Ų": 362,
      "ų": 363,
      "Ŵ": 364,
      "ŵ": 365,
      "Ŷ": 366,
      "ŷ": 367,
      "Ÿ": 368,
      "Ź": 369,
      "ź": 370,
      "Ż": 371,
      "ż": 372,
      "Ž": 373,
      "ž": 374,
      "ſ": 375,
      "ƀ": 376,
      "Ɓ": 377,
      "Ƃ": 378,
      "ƃ": 379,
      "Ƅ": 380,
      "ƅ": 381,
      "Ɔ": 382,
      "Ƈ": 383,
      "ƈ": 384,
      "Ɖ": 385,
      "Ɗ": 386,
      "Ƌ": 387,
      "ƌ": 388,
      "ƍ": 389,
      "Ǝ": 390,
      "Ə": 391,
      "Ɛ": 392,
      "Ƒ": 393,
      "ƒ": 394,
      "Ɠ": 395,
      "Ɣ": 396,
      "ƕ": 397,
      "Ɩ": 398,
      "Ɨ": 399,
      "Ƙ": 400,
      "ƙ": 401,
      "ƚ": 402,
      "ƛ": 403,
      "Ɲ": 404,
      "ƞ": 405,
      "Ɵ": 406,
      "Ơ": 407,
      "ơ": 408,
      "Ƣ": 409,
      "ƣ": 410,
      "Ƥ": 411,
      "ƥ": 412,
      "Ʀ": 413,
      "Ƨ": 414,
      "ƨ": 415,
      "Ʃ": 416,
      "ƪ": 417,
      "ƫ": 418,
      "Ƭ": 419,
      "ƭ": 420,
      "Ʈ": 421,
      "Ư": 422,
      "ư": 423,
      "Ʊ": 424,
      "Ʋ": 425,
      "Ƴ": 426,
      "ƴ": 427,
      "Ƶ": 428,
      "ƶ": 429,
      "Ʒ": 430,
      "Ƹ": 431,
      "ƹ": 432,
      "ƺ": 433,
      "ƻ": 434,
      "Ƽ": 435,
      "ƽ": 436,
      "ƾ": 437,
      "ƿ": 438,
      "ǀ": 439,
      "ǁ": 440,
      "ǂ": 441,
      "ǃ": 442,
      "Ǆ": 443,
      "ǅ": 444,
      "ǆ": 445,
      "Ǉ": 446,
      "ǈ": 447,
      "ǉ": 448,
      "Ǌ": 449,
      "ǋ": 450,
      "ǌ": 451,
      "Ǎ": 452,
      "ǎ": 453,
      "Ǐ": 454,
      "ǐ": 455,
      "Ǒ": 456,
      "ǒ": 457,
      "Ǔ": 458,
      "ǔ": 459,
      "Ǖ": 460,
      "ǖ": 461,
      "Ǘ": 462,
      "ǘ": 463,
      "Ǚ": 464,
      "ǚ": 465,
      "Ǜ": 466,
      "ǜ": 467,
      "ǝ": 468,
      "Ǟ": 469,
      "ǟ": 470,
      "Ǡ": 471,
      "ǡ": 472,
      "Ǣ": 473,
      "ǣ": 474,
      "Ǥ": 475,
      "ǥ": 476,
      "ǧ": 477,
      "Ǩ": 478,
      "ǩ": 479,
      "Ǫ": 480,
      "ǫ": 481,
      "Ǭ": 482,
      "ǭ": 483,
      "Ǯ": 484,
      "ǯ": 485,
      "ǰ": 486,
      "Ǳ": 487,
      "ǲ": 488,
      "ǳ": 489,
      "Ǵ": 490,
      "ǵ": 491,
      "Ƕ": 492,
      "Ƿ": 493,
      "Ǹ": 494,
      "ǹ": 495,
      "Ǻ": 496,
      "ǻ": 497,
      "Ǽ": 498,
      "ǽ": 499,
      "Ǿ": 500,
      "ǿ": 501,
      "Ȁ": 502,
      "ȁ": 503,
      "Ȃ": 504,
      "ȃ": 505,
      "Ȅ": 506,
      "ȅ": 507,
      "Ȇ": 508,
      "ȇ": 509,
      "Ȉ": 510,
      "ȉ": 511,
      "Ȋ": 512,
      "ȋ": 513,
      "Ȍ": 514,
      "ȍ": 515,
      "Ȏ": 516,
      "ȏ": 517,
      "Ȑ": 518,
      "ȑ": 519,
      "Ȓ": 520,
      "ȓ": 521,
      "Ȕ": 522,
      "ȕ": 523,
      "Ȗ": 524,
      "ȗ": 525,
      "Ș": 526,
      "ș": 527,
      "Ț": 528,
      "ț": 529,
      "Ȝ": 530,
      "ȝ": 531,
      "Ȟ": 532,
      "ȟ": 533,
      "Ƞ": 534,
      "ȡ": 535,
      "Ȣ": 536,
      "ȣ": 537,
      "Ȥ": 538,
      "ȥ": 539,
      "Ȧ": 540,
      "ȧ": 541,
      "Ȩ": 542,
      "ȩ": 543,
      "Ȫ": 544,
      "ȫ": 545,
      "Ȭ": 546,
      "ȭ": 547,
      "Ȯ": 548,
      "ȯ": 549,
      "Ȱ": 550,
      "ȨǛ": 551,
      "ǖƲ": 552,
      "ǖǊ": 553,
      "Ȩǘ": 554,
      "ǖƾ": 555,
      "ǖƦ": 556,
      "ȨǗ": 557,
      "ȯǘ": 558,
      "ȯǗ": 559,
      "ȯǛ": 560,
      "ǖƸ": 561,
      "ǖǄ": 562,
      "ȣǗ": 563,
      "ǖǐ": 564,
      "ȦǗ": 565,
      "ǖƬ": 566,
      "ȧǛ": 567,
      "ǫƦ": 568,
      "ȧǘ": 569,
      "ȡǗ": 570,
      "ǡǊ": 571,
      "ȠǗ": 572,
      "ȫǛ": 573,
      "ǡƦ": 574,
      "ȧǗ": 575,
      "ǘƲ": 576,
      "ǡƾ": 577,
      "ǘǊ": 578,
      "ȯǙ": 579,
      "ǛǊ": 580,
      "ȥǗ": 581,
      "ȟǗ": 582,
      "ǘƾ": 583,
      "ǛƲ": 584,
      "ǘƸ": 585,
      "ȤǗ": 586,
      "ȢǗ": 587,
      "ȨǙ": 588,
      "ǧƦ": 589,
      "ǧƾ": 590,
      "ǡƲ": 591,
      "Ǜǐ": 592,
      "ȫǗ": 593,
      "Ǜƾ": 594,
      "ǛƸ": 595,
      "ȩǗ": 596,
      "ǘǐ": 597,
      "ǘƦ": 598,
      "ȪǗ": 599,
      "ǘǄ": 600,
      "Ƞǖ": 601,
      "ȬǗ": 602,
      "ǛƦ": 603,
      "ǘƬ": 604,
      "ǛǄ": 605,
      "ȯǖ": 606,
      "ȜǗ": 607,
      "ǖƯ": 608,
      "ȯǚ": 609,
      "ȭǗ": 610,
      "ǙǊ": 611,
      "ǙƲ": 612,
      "ȣǖ": 613,
      "Ȩǖ": 614,
      "ȣǚ": 615,
      "ǛƬ": 616,
      "ȡǖ": 617,
      "ȞǗ": 618,
      "Ȩǚ": 619,
      "Ǚƾ": 620,
      "ȟǖ": 621,
      "Ȧǖ": 622,
      "Ȣǖ": 623,
      "ȝǗ": 624,
      "Ƞǘ": 625,
      "ȧǖ": 626,
      "Ȥǖ": 627,
      "ȥǖ": 628,
      "ǙƦ": 629,
      "ǚǊ": 630,
      "ǤƦ": 631,
      "Ȟǖ": 632,
      "Ȧǘ": 633,
      "Ȝǖ": 634,
      "ǪƦ": 635,
      "ȣǘ": 636,
      "ǚƲ": 637,
      "ǢƦ": 638,
      "Ŋȯ": 639,
      "ȮǗ": 640,
      "ȝǖ": 641,
      "Ȩǡ": 642,
      "FÇ": 643,
      "ȫǘ": 644,
      "ȚǗ": 645,
      "Ǚǐ": 646,
      "ǙƸ": 647,
      "ǚƾ": 648,
      "ȩǖ": 649,
      "FÌ": 650,
      "ǚǐ": 651,
      "ŐȠ": 652,
      "FÊ": 653,
      "ǝǊ": 654,
      "Őȣ": 655,
      "ȥǘ": 656,
      "ȫǖ": 657,
      "Ȫǖ": 658,
      "ǟǊ": 659,
      "Őȡ": 660,
      "FÅ": 661,
      "ǚƸ": 662,
      "ŐȦ": 663,
      "ǝƦ": 664,
      "ȯǖǊ": 665,
      "ǥƦ": 666,
      "ȨǛǊ": 667,
      "Țǖ": 668,
      "ȯǖƲ": 669,
      "țǖ": 670,
      "ȯǡ": 671,
      "ǥƾ": 672,
      "ǚƦ": 673,
      "Ȥǘ": 674,
      "ǙǄ": 675,
      "ǝƲ": 676,
      "ǝƾ": 677,
      "Ȣǘ": 678,
      "ȩǘ": 679,
      "țǗ": 680,
      "ȨǛƲ": 681,
      "ǚǄ": 682,
      "ǯƦ": 683,
      "ǟƦ": 684,
      "ǟƾ": 685,
      "Ȫǘ": 686,
      "ȡǘ": 687,
      "ǩƦ": 688,
      "ȨǛƾ": 689,
      "ǨƸ": 690,
      "Őȟ": 691,
      "ȧǙ": 692,
      "ȨǛƸ": 693,
      "ȨǛǐ": 694,
      "ǠǊ": 695,
      "ǫǕ": 696,
      "ŐȨǗ": 697,
      "ǡƸ": 698,
      "FÉ": 699,
      "ǜǊ": 700,
      "ǞƦ": 701,
      "ȨǛǄ": 702,
      "Ǣƾ": 703,
      "Ǥƾ": 704,
      "ȨǛƦ": 705,
      "ŐȢ": 706,
      "ǟƲ": 707,
      "ŐȤ": 708,
      "ǙƬ": 709,
      "Ȭǖ": 710,
      "ȟǘ": 711,
      "ȯǖƦ": 712,
      "FÎ": 713,
      "ŐȡǗ": 714,
      "Őȥ": 715,
      "ǜƲ": 716,
      "ǞǊ": 717,
      "ŐȦǗ": 718,
      "ǚƬ": 719,
      "ȭǖ": 720,
      "ȦǛ": 721,
      "ǡǄ": 722,
      "ŐȣǗ": 723,
      "ȦǙ": 724,
      "ŐȨ": 725,
      "ǜƾ": 726,
      "äȠ": 727,
      "ȯǖƾ": 728,
      "șǖ": 729,
      "äȣ": 730,
      "Ǟƾ": 731,
      "ǜƦ": 732,
      "ȯǛǊ": 733,
      "æȣ": 734,
      "ȯǗǊ": 735,
      "ȨǘǊ": 736,
      "ǠƦ": 737,
      "Ǡƾ": 738,
      "ȯǗƲ": 739,
      "ȨǘƲ": 740,
      "æȠ": 741,
      "Ȭǘ": 742,
      "FÂ": 743,
      "ȯǘǊ": 744,
      "ȯǘƲ": 745,
      "ǞƲ": 746,
      "ȯǛƲ": 747,
      "ȨǛƬ": 748,
      "ȭǘ": 749,
      "Șǖ": 750,
      "HÊ": 751,
      "ȥǛ": 752,
      "HÌ": 753,
      "âȠ": 754,
      "Ȩǘƾ": 755,
      "ȣǙ": 756,
      "ǧƸ": 757,
      "ŐȪ": 758,
      "ȯǛƾ": 759,
      "ȨǗǊ": 760,
      "ȩǛ": 761,
      "ȨǗƲ": 762,
      "ȥǙ": 763,
      "äȦ": 764,
      "ǡǐ": 765,
      "ȪǛ": 766,
      "ȨǡƦ": 767,
      "ȨǗƾ": 768,
      "ßȠ": 769,
      "éȠ": 770,
      "ȯǗƾ": 771,
      "FÈ": 772,
      "ȣǛ": 773,
      "ȨǘƸ": 774,
      "ȨǡǊ": 775,
      "æȦ": 776,
      "ŐȞ": 777,
      "ǨƦ": 778,
      "ŐȜ": 779,
      "Ŋȫ": 780,
      "ȯǘƾ": 781,
      "ȯǛƦ": 782,
      "Őȧ": 783,
      "äȥ": 784,
      "HÇ": 785,
      "ȤǙ": 786,
      "ȯǗƦ": 787,
      "FÃ": 788,
      "CÚ": 789,
      "ȯǘƦ": 790,
      "âȣ": 791,
      "EÌ": 792,
      "ȫǙ": 793,
      "ȩǙ": 794,
      "ȤǛ": 795,
      "äȢ": 796,
      "ǩƲ": 797,
      "ǤǄ": 798,
      "ȪǙ": 799,
      "æȥ": 800,
      "ŉȫ": 801,
      "ȠǛ": 802,
      "Őȫ": 803,
      "CØ": 804,
      "ȨǘƦ": 805,
      "äȡ": 806,
      "Ȩǘǐ": 807,
      "ȯǛǐ": 808,
      "EÊ": 809,
      "ȘǗ": 810,
      "ȨǖǊ": 811,
      "éȣ": 812,
      "ǠƲ": 813,
      "ȨǗƦ": 814,
      "ȨǖƲ": 815,
      "ȯǛƸ": 816,
      "ǤƸ": 817,
      "Őȝ": 818,
      "Ȩǡƾ": 819,
      "ßȣ": 820,
      "ȗǖ": 821,
      "éȦ": 822,
      "âȦ": 823,
      "ȧǛǊ": 824,
      "ŐȠǖ": 825,
      "Őȩ": 826,
      "ȯǝ": 827,
      "ǧƽ": 828,
      "ȠǙ": 829,
      "FÑ": 830,
      "Ȯǖ": 831,
      "äȤ": 832,
      "%÷": 833,
      "EÑ": 834,
      "AÝ": 835,
      "æȢ": 836,
      "ǧǕ": 837,
      "æȡ": 838,
      "șǗ": 839,
      "ȨǘǄ": 840,
      "Ȟǘ": 841,
      "âȥ": 842,
      "ǡƬ": 843,
      "Aß": 844,
      "ȨǫƦ": 845,
      "Cß": 846,
      "âȡ": 847,
      "Ŋȭ": 848,
      "ŐȟǗ": 849,
      "ȧǛƲ": 850,
      "âȢ": 851,
      "ȯǛǄ": 852,
      "æȤ": 853,
      "éȥ": 854,
      "ȯǜ": 855,
      "ȬǛ": 856,
      "ȨǡƲ": 857,
      "áȠ": 858,
      "ǢǄ": 859,
      "ȨǘƬ": 860,
      "ÝȠ": 861,
      "ȧǛƾ": 862,
      "ŐȚ": 863,
      "ȯǘƸ": 864,
      "ȨǖƦ": 865,
      "áȣ": 866,
      "ȗǗ": 867,
      "ëȣ": 868,
      "Ȩǝ": 869,
      "FË": 870,
      "AÚ": 871,
      "HÅ": 872,
      "ȭǛ": 873,
      "Ȩǖƾ": 874,
      "ëȠ": 875,
      "äȧ": 876,
      "ßȦ": 877,
      "Ȝǘ": 878,
      "ȝǘ": 879,
      "ŊȪ": 880,
      "ëȦ": 881,
      "FÏ": 882,
      "âȤ": 883,
      "HÎ": 884,
      "ǧƲ": 885,
      "FÄ": 886,
      "æȧ": 887,
      "çȣ": 888,
      "ßȢ": 889,
      "CÝ": 890,
      "Ȯǘ": 891,
      "éȢ": 892,
      "ȯǘǐ": 893,
      "ßȥ": 894,
      "CÓ": 895,
      "ȧǛǐ": 896,
      "éȡ": 897,
      "AØ": 898,
      "EÎ": 899,
      "áȦ": 900,
      "ȧǛƦ": 901,
      "ȨǞ": 902,
      "äȩ": 903,
      "ßȡ": 904,
      "ȫǛǊ": 905,
      "çȠ": 906,
      "ȯǗƸ": 907,
      "ȧǛƸ": 908,
      "FÆ": 909,
      "ǕU": 910,
      "ȯǢ": 911,
      "æȩ": 912,
      "BÚ": 913,
      "éȤ": 914,
      "äȫ": 915,
      "çȦ": 916,
      "ŐȠǗ": 917,
      "HÉ": 918,
      "ŐȬ": 919,
      "ȫǛƲ": 920,
      "ȯǡǊ": 921,
      "ŉȭ": 922,
      "äȪ": 923,
      "ŊȬ": 924,
      "ǡǉ": 925,
      "ȯǞ": 926,
      "ȧǛǄ": 927,
      "Ýȣ": 928,
      "Őȭ": 929,
      "EÏ": 930,
      "áȢ": 931,
      "ȯǘǄ": 932,
      "æȫ": 933,
      "äȟ": 934,
      "áȥ": 935,
      "BØ": 936,
      "ȨǗƸ": 937,
      "HÑ": 938,
      "ëȥ": 939,
      "çȥ": 940,
      "ŉȬ": 941,
      "FÍ": 942,
      "áȡ": 943,
      "ßȤ": 944,
      "æȪ": 945,
      "ȯǛƬ": 946,
      "äȨ": 947,
      "ȬǙ": 948,
      "ȫǛƾ": 949,
      "Ȗǖ": 950,
      "ȯǗǐ": 951,
      "æȨ": 952,
      "ȢǙ": 953,
      "ȣǗƾ": 954,
      "æȟ": 955,
      "ȯǡƦ": 956,
      "âȧ": 957,
      "ȯǖƸ": 958,
      "éȫ": 959,
      "Őț": 960,
      "ŊȦ": 961,
      "Őȡǖ": 962,
      "CÖ": 963,
      "éȧ": 964,
      "ȡǙ": 965,
      "âȟ": 966,
      "éȩ": 967,
      "ȦǗƲ": 968,
      "áȤ": 969,
      "ȢǛ": 970,
      "ÝȦ": 971,
      "CÕ": 972,
      "ȦǗǊ": 973,
      "ȫǖƲ": 974,
      "éȪ": 975,
      "ȭǙ": 976,
      "Ýȥ": 977,
      "ȣǗǊ": 978,
      "Őȣǖ": 979,
      "ǢƸ": 980,
      "Uð": 981,
      "ȣǗƲ": 982,
      "FÓ": 983,
      "ȯǗǄ": 984,
      "ȯǖǐ": 985,
      "ǜǄ": 986,
      "ǡǕ": 987,
      "Ýȡ": 988,
      "ȣǗƸ": 989,
      "Bß": 990,
      "Uî": 991,
      "EÇ": 992,
      "ȦǗƦ": 993,
      "ȯǙǊ": 994,
      "ȫǖǊ": 995,
      "âȩ": 996,
      "ȯǘƬ": 997,
      "ǢƲ": 998,
      "Uë": 999,
      "ȫǛǐ": 1000,
      "ȨǗǄ": 1001,
      "ȨǗǐ": 1002,
      "ȯǖǄ": 1003,
      "Ȫǚ": 1004,
      "èȠ": 1005,
      "ǜƸ": 1006,
      "ÝȢ": 1007,
      "ȯǙƲ": 1008,
      "ȧǚ": 1009,
      "âȫ": 1010,
      "ȯǟ": 1011,
      "ȯǡƾ": 1012,
      "ȧǘƲ": 1013,
      "çȤ": 1014,
      "ǣƦ": 1015,
      "ȩǚ": 1016,
      "èȣ": 1017,
      "ßȟ": 1018,
      "éȨ": 1019,
      "ŐȜǗ": 1020,
      "ȫǛƦ": 1021,
      "ȧǛƬ": 1022,
      "ǤƬ": 1023,
      "ŜȠ": 1024,
      "ǡƽ": 1025,
      "ǫǐ": 1026,
      "çȡ": 1027,
      "ȯǡƲ": 1028,
      "ȦǗƾ": 1029,
      "ȧǖǊ": 1030,
      "ȧǘǊ": 1031,
      "èȦ": 1032,
      "HÈ": 1033,
      "ȮǙ": 1034,
      "ȧǘƾ": 1035,
      "ȫǛƸ": 1036,
      "ŐȢǖ": 1037,
      "AÖ": 1038,
      "Ŋȩ": 1039,
      "ȧǖƲ": 1040,
      "éȟ": 1041,
      "ȫǛǄ": 1042,
      "âȪ": 1043,
      "ȦǖǊ": 1044,
      "ŉȪ": 1045,
      "EÓ": 1046,
      "ȫǚ": 1047,
      "ǤƲ": 1048,
      "ëȤ": 1049,
      "ÝȤ": 1050,
      "HÏ": 1051,
      "ŊȮ": 1052,
      "ȦǖƲ": 1053,
      "țǘ": 1054,
      "ȣǗƦ": 1055,
      "âȨ": 1056,
      "ǜǐ": 1057,
      "çȢ": 1058,
      "ȨǗƬ": 1059,
      "ȯǗƬ": 1060,
      "Őȟǖ": 1061,
      "Uò": 1062,
      "CÎ": 1063,
      "ǟƸ": 1064,
      "Uí": 1065,
      "ǪǕ": 1066,
      "ǢǊ": 1067,
      "Ýȟ": 1068,
      "ȨǘƯ": 1069,
      "ǢƬ": 1070,
      "àȠ": 1071,
      "áȟ": 1072,
      "ãȣ": 1073,
      "åȠ": 1074,
      "ëȡ": 1075,
      "ŊȯǖƦ": 1076,
      "CÜ": 1077,
      "ȨǙƲ": 1078,
      "ȣǗǐ": 1079,
      "ȯǙƾ": 1080,
      "ŐȞǖ": 1081,
      "ȨǙǊ": 1082,
      "Aâ": 1083,
      "ȣǖƲ": 1084,
      "ëȫ": 1085,
      "ǠƸ": 1086,
      "ȮǛ": 1087,
      "ãȠ": 1088,
      "ȣǖǊ": 1089,
      "ǧƬ": 1090,
      "ȧǘƸ": 1091,
      "ŉȩ": 1092,
      "ǫƬ": 1093,
      "ŐȧǗ": 1094,
      "ǟǄ": 1095,
      "ëȩ": 1096,
      "ëȢ": 1097,
      "áȧ": 1098,
      "ŐȬǗ": 1099,
      "AÛ": 1100,
      "îȠ": 1101,
      "Ȩǘƻ": 1102,
      "äȬ": 1103,
      "ǪƬ": 1104,
      "%×": 1105,
      "îȦ": 1106,
      "ȯǖƬ": 1107,
      "ŐȢǗ": 1108,
      "ȯǫƦ": 1109,
      "AÓ": 1110,
      "ŐȜǖ": 1111,
      "ßȧ": 1112,
      "íȣ": 1113,
      "ǝǄ": 1114,
      "CÑ": 1115,
      "ȦǗƸ": 1116,
      "ȖǗ": 1117,
      "ȨǧƦ": 1118,
      "äȞ": 1119,
      "ȕǖ": 1120,
      "èȥ": 1121,
      "ȨǖƸ": 1122,
      "ëȪ": 1123,
      "ŌȬ": 1124,
      "ŉȦ": 1125,
      "BÝ": 1126,
      "åȣ": 1127,
      "ëȧ": 1128,
      "ȡǛ": 1129,
      "ǞƸ": 1130,
      "äȭ": 1131,
      "ãȦ": 1132,
      "íȠ": 1133,
      "CÛ": 1134,
      "æȬ": 1135,
      "ǧǄ": 1136,
      "çȧ": 1137,
      "îȣ": 1138,
      "ȯǙƦ": 1139,
      "ȪǖǊ": 1140,
      "ŐȤǖ": 1141,
      "ǝƸ": 1142,
      "çȩ": 1143,
      "ŐȤǗ": 1144,
      "FÐ": 1145,
      "Aá": 1146,
      "æȞ": 1147,
      "ŐȫǗ": 1148,
      "ȪǖƲ": 1149,
      "Uõ": 1150,
      "àȣ": 1151,
      "æȭ": 1152,
      "íȦ": 1153,
      "Țǘ": 1154,
      "éȬ": 1155,
      "ßȩ": 1156,
      "âȞ": 1157,
      "èȤ": 1158,
      "Ōȭ": 1159,
      "ȨǙƾ": 1160,
      "ǢǕ": 1161,
      "ǜƬ": 1162,
      "ȫǛƬ": 1163,
      "ǨƲ": 1164,
      "BÓ": 1165,
      "Ȩǧƾ": 1166,
      "ȣǗǄ": 1167,
      "ǡƱ": 1168,
      "Ŋȧ": 1169,
      "Őȝǖ": 1170,
      "åȦ": 1171,
      "ȧǘƦ": 1172,
      "ȧǘǄ": 1173,
      "EÅ": 1174,
      "ãȥ": 1175,
      "Cá": 1176,
      "Ŝȟ": 1177,
      "ȡǗƲ": 1178,
      "ȧǘǐ": 1179,
      "çȟ": 1180,
      "ðȠ": 1181,
      "HË": 1182,
      "Aä": 1183,
      "ǞǄ": 1184,
      "çȫ": 1185,
      "ȡǗǊ": 1186,
      "ȯǠ": 1187,
      "ŉȯǖƦ": 1188,
      "çȪ": 1189,
      "îȥ": 1190,
      "EÉ": 1191,
      "ȨǘǇ": 1192,
      "ÚȠ": 1193,
      "ðȦ": 1194,
      "BÖ": 1195,
      "èȢ": 1196,
      "Ȭǚ": 1197,
      "ßȞ": 1198,
      "Ȩǖǐ": 1199,
      "ȥǖƲ": 1200,
      "ȦǗǐ": 1201,
      "AÕ": 1202,
      "àȦ": 1203,
      "ðȣ": 1204,
      "ȦǗǄ": 1205,
      "åȥ": 1206,
      "Bá": 1207,
      "ȡǗƸ": 1208,
      "éȭ": 1209,
      "ȨǖǄ": 1210,
      "EÍ": 1211,
      "ȩǖǊ": 1212,
      "ȧǘƬ": 1213,
      "Őȯǖ": 1214,
      "ßȫ": 1215,
      "ǤǊ": 1216,
      "ȥǖǊ": 1217,
      "ȩǖƲ": 1218,
      "ǫƦV": 1219,
      "ǧǊ": 1220,
      "ȣǗƬ": 1221,
      "ãȤ": 1222,
      "ȣǖƾ": 1223,
      "ȟǙ": 1224,
      "ǮƦ": 1225,
      "ȨǘǓ": 1226,
      "ŉȮ": 1227,
      "àȥ": 1228,
      "Ŋȯǖƾ": 1229,
      "ŐȦǖ": 1230,
      "ŐȥǗ": 1231,
      "èȡ": 1232,
      "ǟǐ": 1233,
      "HÍ": 1234,
      "ßȪ": 1235,
      "CÙ": 1236,
      "ãȢ": 1237,
      "ŜȜ": 1238,
      "ȣǖƦ": 1239,
      "ǭƦ": 1240,
      "ëȨ": 1241,
      "Ŝȡ": 1242,
      "EÈ": 1243,
      "ãȡ": 1244,
      "äȝ": 1245,
      "HÃ": 1246,
      "àȡ": 1247,
      "AÜ": 1248,
      "ǫƦU": 1249,
      "FÀ": 1250,
      "ÛȠ": 1251,
      "ȤǖǊ": 1252,
      "BÕ": 1253,
      "BÜ": 1254,
      "Ýȧ": 1255,
      "ÞȠ": 1256,
      "ȬǗƲ": 1257,
      "ǥƽ": 1258,
      "åȢ": 1259,
      "Őȥǖ": 1260,
      "æȝ": 1261,
      "ȬǗǊ": 1262,
      "ÝȞ": 1263,
      "áȩ": 1264,
      "æȯ": 1265,
      "ŐȮ": 1266,
      "ȠǗƲ": 1267,
      "ȧǗƲ": 1268,
      "Ǥǐ": 1269,
      "ȨǙƦ": 1270,
      "GÇ": 1271,
      "ȕǗ": 1272,
      "ȠǗƸ": 1273,
      "ȫǗƲ": 1274,
      "Ŏȭ": 1275,
      "âȝ": 1276,
      "ǯǕ": 1277,
      "ŐȪǗ": 1278,
      "ǚǉ": 1279,
      "ȫǗǊ": 1280,
      "äȯ": 1281,
      "ȧǗƸ": 1282,
      "êȠ": 1283,
      "àȢ": 1284,
      ">×": 1285,
      "åȤ": 1286,
      "ȠǗǊ": 1287,
      "HÓ": 1288,
      "éȞ": 1289,
      "ëȟ": 1290,
      "Úȣ": 1291,
      "ȯǘƯ": 1292,
      "èȧ": 1293,
      "íȥ": 1294,
      "ǝǐ": 1295,
      "ŐȚǖ": 1296,
      "åȡ": 1297,
      "ȤǖƲ": 1298,
      "ǚǕ": 1299,
      "ßȝ": 1300,
      "AÑ": 1301,
      "ǥƲ": 1302,
      "áȫ": 1303,
      "ǜǉ": 1304,
      "ȡǗǐ": 1305,
      "ëȬ": 1306,
      "ǟƬ": 1307,
      "çȨ": 1308,
      "ȩǗƲ": 1309,
      "âȭ": 1310,
      "ǥƸ": 1311,
      "Uó": 1312,
      "ȠǖǊ": 1313,
      "ȠǖƲ": 1314,
      "èȩ": 1315,
      "áȪ": 1316,
      "ȯǘƻ": 1317,
      "ȡǗƾ": 1318,
      "ǧǐ": 1319,
      "ȦǗƬ": 1320,
      "Őȧǖ": 1321,
      "ØȠ": 1322,
      "Uì": 1323,
      "ǥǕ": 1324,
      "ëȭ": 1325,
      "ßȨ": 1326,
      "EÐ": 1327,
      "àȤ": 1328,
      "èȫ": 1329,
      "âȬ": 1330,
      "ȧǗǊ": 1331,
      "ǠǄ": 1332,
      "HÂ": 1333,
      "áȞ": 1334,
      "GÌ": 1335,
      "ǝƬ": 1336,
      "îȤ": 1337,
      "ȧǗƾ": 1338,
      "ȩǗǊ": 1339,
      "ŐȨǖ": 1340,
      "KÊ": 1341,
      "ðȥ": 1342,
      "Őțǖ": 1343,
      "êȦ": 1344,
      "èȪ": 1345,
      "êȣ": 1346,
      "ȢǖƲ": 1347,
      "ȠǗƾ": 1348,
      "Ȩǘǁ": 1349,
      "Ýȩ": 1350,
      "Ué": 1351,
      "îȪ": 1352,
      "ȧǖƾ": 1353,
      "ūȜǗ": 1354,
      "òȠ": 1355,
      "îȫ": 1356,
      "ȥǗƸ": 1357,
      "ȣǖƸ": 1358,
      "ȯǚǊ": 1359,
      "ŎȬ": 1360,
      "CÞ": 1361,
      "GÊ": 1362,
      "Ýȫ": 1363,
      "ȢǖǊ": 1364,
      "ȧǖƦ": 1365,
      "îȩ": 1366,
      "Aà": 1367,
      "ǚǏ": 1368,
      "ȡǖƲ": 1369,
      "ȨǙƸ": 1370,
      "ȠǗǄ": 1371,
      "ȡǖǊ": 1372,
      "Ŝȝ": 1373,
      "Cä": 1374,
      "ȭǗƲ": 1375,
      "Bä": 1376,
      "ȟǗƲ": 1377,
      "ȥǗǊ": 1378,
      "ȠǗǐ": 1379,
      "ȥǗƲ": 1380,
      "áȨ": 1381,
      "ȢǗƲ": 1382,
      "ǝǉ": 1383,
      "BÛ": 1384,
      "Ǟǐ": 1385,
      "ȠǖƦ": 1386,
      "Ǡǐ": 1387,
      "ǚƱ": 1388,
      "ȩǗƾ": 1389,
      "ǣƾ": 1390,
      "ÚȦ": 1391,
      "ȣǚƲ": 1392,
      "æȮ": 1393,
      "èȟ": 1394,
      "ȡǗǄ": 1395,
      "ŐȚǗ": 1396,
      "ŐȞǗ": 1397,
      "Ǣǐ": 1398,
      "ȣǚǊ": 1399,
      "ȠǖƸ": 1400,
      "ìȦ": 1401,
      "ŐȘ": 1402,
      "7ò": 1403,
      "ŉȯǖƾ": 1404,
      "ȥǖƦ": 1405,
      "Ƞǖƾ": 1406,
      "ȯǘǇ": 1407,
      "ȭǗǊ": 1408,
      "éȯ": 1409,
      "ÝȪ": 1410,
      "ŐȝǗ": 1411,
      "îȢ": 1412,
      "Ǡǉ": 1413,
      "ǩǕ": 1414,
      "ãȧ": 1415,
      "ȥǖƾ": 1416,
      "ǤǕ": 1417,
      "ȨǡƸ": 1418,
      "ȯǚƲ": 1419,
      "íȤ": 1420,
      "ìȣ": 1421,
      "ǫƾ": 1422,
      "ȡǗƦ": 1423,
      "Úȥ": 1424,
      "âȯ": 1425,
      "çȞ": 1426,
      "Őș": 1427,
      "ȥǗƾ": 1428,
      "ȨǖƬ": 1429,
      "ȫǗƾ": 1430,
      "åȧ": 1431,
      "ŌȯǖǊ": 1432,
      "ãȩ": 1433,
      "ȢǗƸ": 1434,
      "ǜƱ": 1435,
      "íȫ": 1436,
      "ǞƬ": 1437,
      "ȠǗƬ": 1438,
      "ȨǙǐ": 1439,
      "æȜ": 1440,
      "CÔ": 1441,
      "ȟǛ": 1442,
      "Ýȝ": 1443,
      "ȢǖƦ": 1444,
      "HÐ": 1445,
      "ðȫ": 1446,
      "EË": 1447,
      "äȜ": 1448,
      "âȜ": 1449,
      "ìȠ": 1450,
      "ȤǗƲ": 1451,
      "ØȦ": 1452,
      "ȨǘǍ": 1453,
      "ȤǗƸ": 1454,
      "Þȣ": 1455,
      "ȯǙǐ": 1456,
      "åȩ": 1457,
      "ŜȞ": 1458,
      "HÆ": 1459,
      "Øȣ": 1460,
      "ǫƦW": 1461,
      "ŊȤ": 1462,
      "ǚƷ": 1463,
      "ȩǗƸ": 1464,
      "çȬ": 1465,
      "íȪ": 1466,
      "ŌȯǖƲ": 1467,
      "Ŋȣ": 1468,
      "ǣǄ": 1469,
      "Ǩƾ": 1470,
      "ȢǗǊ": 1471,
      "EÖ": 1472,
      "ðȪ": 1473,
      "íȢ": 1474,
      "íȩ": 1475,
      "ðȩ": 1476,
      "Ȕǖ": 1477,
      "îȡ": 1478,
      "Ƞǖǐ": 1479,
      "ȟǗǊ": 1480,
      "Aæ": 1481,
      "ȪǗƲ": 1482,
      "Ûȣ": 1483,
      "êȥ": 1484,
      "ȨǘƵ": 1485,
      "ȫǘǊ": 1486,
      "ðȤ": 1487,
      "ǟǕ": 1488,
      "ȤǗǊ": 1489,
      "ÚȢ": 1490,
      "çȭ": 1491,
      "ǜǕ": 1492,
      "GÅ": 1493,
      "ȯǙƸ": 1494,
      "ŜȚ": 1495,
      "ȧǗǐ": 1496,
      "ȧǗǄ": 1497,
      "AÞ": 1498,
      "ȢǗƾ": 1499,
      "Ǩǐ": 1500,
      "Cæ": 1501,
      "ãȟ": 1502,
      "ȫǘƲ": 1503,
      "HÄ": 1504,
      "ǚƽ": 1505,
      "éȝ": 1506,
      "òȦ": 1507,
      "îȧ": 1508,
      "Ȣǖƾ": 1509,
      "Ǣǆ": 1510,
      "ȡǗƬ": 1511,
      "áȝ": 1512,
      "ǠǕ": 1513,
      "ǫƩ": 1514,
      "òȣ": 1515,
      "ȯǚƾ": 1516,
      "àȟ": 1517,
      "ßȜ": 1518,
      "ȡǖƾ": 1519,
      "ȯǗƯ": 1520,
      "ȥǗǄ": 1521,
      "7õ": 1522,
      "ȤǗƾ": 1523,
      "ëȯ": 1524,
      "ȬǗƾ": 1525,
      "àȧ": 1526,
      "ȟǗƾ": 1527,
      "Ŋȯǖ": 1528,
      "ßȬ": 1529,
      "èȨ": 1530,
      "ÝȨ": 1531,
      "ǟǉ": 1532,
      "ȣǚƸ": 1533,
      "FÖ": 1534,
      "ȟǗƸ": 1535,
      "ȨǚǊ": 1536,
      "ȠǖǄ": 1537,
      "ȪǗǊ": 1538,
      "ìȥ": 1539,
      "ȡǖƸ": 1540,
      "íȧ": 1541,
      "ȫǗƦ": 1542,
      "Ȧǖƾ": 1543,
      "ǩƬ": 1544,
      "ȫǗƸ": 1545,
      "ȥǗǐ": 1546,
      "ßȭ": 1547,
      "Bæ": 1548,
      "ȨǙǄ": 1549,
      "ÛȦ": 1550,
      "ÜȠ": 1551,
      "Úȡ": 1552,
      "ǜƽ": 1553,
      "äȮ": 1554,
      "ȧǗƦ": 1555,
      "ȡǖƦ": 1556,
      "ȧǘƯ": 1557,
      "Øȥ": 1558,
      "CÐ": 1559,
      "ȣǚǐ": 1560,
      "LÊ": 1561,
      "ȧǗƬ": 1562,
      "ǨƷ": 1563,
      "ȭǗƾ": 1564,
      "ÞȦ": 1565,
      "ǝǕ": 1566,
      "ȣǚƾ": 1567,
      "Uô": 1568,
      "ÝȜ": 1569,
      "éȮ": 1570,
      "ŐȯǖƲ": 1571,
      "ȢǖƸ": 1572,
      "åȪ": 1573,
      "FÁ": 1574,
      "ǝƱ": 1575,
      "íȡ": 1576,
      "ȣǚƦ": 1577,
      "ȟǗǄ": 1578,
      "ŐȯǖǊ": 1579,
      "ȯǘǓ": 1580,
      "åȟ": 1581,
      "åȫ": 1582,
      "ŐȯǖƦ": 1583,
      "êȤ": 1584,
      "ȨǚƲ": 1585,
      "AÎ": 1586,
      "Ûȥ": 1587,
      "ȨǗƯ": 1588,
      "Þȥ": 1589,
      "ŜȜǖ": 1590,
      "ȣǖǄ": 1591,
      "GÎ": 1592,
      "ǡƷ": 1593,
      "èȬ": 1594,
      "ȭǗƦ": 1595,
      "ȯǧƦ": 1596,
      "ȦǖƦ": 1597,
      "ūȜ": 1598,
      "ȪǗƾ": 1599,
      "Câ": 1600,
      "çȝ": 1601,
      "ãȫ": 1602,
      "ëȞ": 1603,
      "BÑ": 1604,
      "ȯǗƻ": 1605,
      "Uï": 1606,
      "ȥǗƬ": 1607,
      "ūȟ": 1608,
      "ȪǗƸ": 1609,
      "EÒ": 1610,
      "ȢǗǐ": 1611,
      "ãȪ": 1612,
      "Uæ": 1613,
      "ȯǚƦ": 1614,
      "ȣǖǐ": 1615,
      "ȯǙǄ": 1616,
      "ÚȤ": 1617,
      "ǧƻ": 1618,
      "ȤǗǄ": 1619,
      "ðȧ": 1620,
      "Őȯǖƾ": 1621,
      "ȨǗƻ": 1622,
      "FÕ": 1623,
      "ȩǗƦ": 1624,
      "ðȢ": 1625,
      "ǠƬ": 1626,
      "ǡǍ": 1627,
      "Ûȡ": 1628,
      "ȢǗǄ": 1629,
      "ǚǃ": 1630,
      "ȠǖƬ": 1631,
      "ȤǗǐ": 1632,
      "AÙ": 1633,
      "ǥǄ": 1634,
      "CÏ": 1635,
      "îȭ": 1636,
      "ǝƽ": 1637,
      "àȩ": 1638,
      "ȨǡǄ": 1639,
      "EÔ": 1640,
      "ȧǖƸ": 1641,
      "ȧǡƦ": 1642,
      "BÎ": 1643,
      "ðȡ": 1644,
      "êȢ": 1645,
      "ŌȮ": 1646,
      "îȬ": 1647,
      "ȟǗƬ": 1648,
      "Ǚƺ": 1649,
      "LÌ": 1650,
      "Ȩǡǐ": 1651,
      "íȨ": 1652,
      "ȡǖǐ": 1653,
      "ȠǗƦ": 1654,
      "Uç": 1655,
      "GÂ": 1656,
      "ȧǘƻ": 1657,
      "ȧǡǊ": 1658,
      "Ŝț": 1659,
      "ÖȠ": 1660,
      "LÇ": 1661,
      "Uä": 1662,
      "ìȤ": 1663,
      "ȯǧƾ": 1664,
      "îȨ": 1665,
      "Þȡ": 1666,
      "Ŭȟ": 1667,
      "ÞȢ": 1668,
      "áȭ": 1669,
      "ȩǗǐ": 1670,
      "ȬǗƦ": 1671,
      "Ŕȟ": 1672,
      "êȡ": 1673,
      "Șǘ": 1674,
      "ȤǗƬ": 1675,
      "áȬ": 1676,
      "ȤǖƦ": 1677,
      "Uñ": 1678,
      "âȮ": 1679,
      "ðȭ": 1680,
      "Ǣƽ": 1681,
      "ȢǗƬ": 1682,
      "KÑ": 1683,
      "ȥǗƦ": 1684,
      "ŜȠǖ": 1685,
      "ŎȮ": 1686,
      "Ǚǒ": 1687,
      "ŉȫǖƦ": 1688,
      "ȨǘƩ": 1689,
      "ȥǖƸ": 1690,
      "Ȣǖǐ": 1691,
      "CÒ": 1692,
      "ȯǗǇ": 1693,
      "ŉȯǖ": 1694,
      "Øȡ": 1695,
      "Ȥǖƾ": 1696,
      "Ǡƽ": 1697,
      "ȣǗƯ": 1698,
      "ȟǗǐ": 1699,
      "nò": 1700,
      "ǡǃ": 1701,
      "áȜ": 1702,
      "ȩǗǄ": 1703,
      "ȯǘǁ": 1704,
      "ãȞ": 1705,
      "ãȨ": 1706,
      "KÇ": 1707,
      "ÞȤ": 1708,
      "ÛȢ": 1709,
      "ǧǁ": 1710,
      "ȧǡƾ": 1711,
      "KÌ": 1712,
      "șǘ": 1713,
      "ŐȨǗǊ": 1714,
      "Cà": 1715,
      "ØȢ": 1716,
      "ëȝ": 1717,
      "èȭ": 1718,
      "ȣǚǄ": 1719,
      "ǟƽ": 1720,
      "ȫǗǐ": 1721,
      "èȞ": 1722,
      "Ȩǚƾ": 1723,
      "éȜ": 1724,
      "ÛȤ": 1725,
      "Úȟ": 1726,
      "êȩ": 1727,
      "ȨǙƬ": 1728,
      "GÉ": 1729,
      "íȭ": 1730,
      "ŌȪ": 1731,
      "ŔȦ": 1732,
      "ȯǚǐ": 1733,
      "ȢǖǄ": 1734,
      "FÒ": 1735,
      "ȪǗƦ": 1736,
      "ǢǇ": 1737,
      "Őȩǖ": 1738,
      "ȣǖƬ": 1739,
      "ūȚ": 1740,
      "ìȩ": 1741,
      "Ǥƽ": 1742,
      "êȫ": 1743,
      "Aé": 1744,
      "Uú": 1745,
      "àȞ": 1746,
      "Ǟǉ": 1747,
      "ßȯ": 1748,
      "Bâ": 1749,
      "ȧǖǐ": 1750,
      "àȫ": 1751,
      "ȥǖǐ": 1752,
      "åȨ": 1753,
      "Uù": 1754,
      "ðȬ": 1755,
      "Ȩǚǐ": 1756,
      "ëȮ": 1757,
      "ȣǗƻ": 1758,
      "ŐȯǗ": 1759,
      "ȡǖǄ": 1760,
      "ȤǗƦ": 1761,
      "ȯǚƸ": 1762,
      "ȧǘǇ": 1763,
      "ȫǗǄ": 1764,
      "íȬ": 1765,
      "Ýȭ": 1766,
      "ðȨ": 1767,
      "ȪǗǐ": 1768,
      "êȪ": 1769,
      "ȩǗƬ": 1770,
      "FÔ": 1771,
      "Ōȫ": 1772,
      "ìȫ": 1773,
      "îȟ": 1774,
      "ǡǏ": 1775,
      "LÅ": 1776,
      "Üȣ": 1777,
      "ȤǖƸ": 1778,
      "àȪ": 1779,
      "ãȬ": 1780,
      "ȨǗǇ": 1781,
      "ÖȦ": 1782,
      "çȯ": 1783,
      "ȬǗƸ": 1784,
      "ŉȨǗƾ": 1785,
      "EÕ": 1786,
      "Uâ": 1787,
      "ØȤ": 1788,
      "Ŝȝǖ": 1789,
      "òȫ": 1790,
      "åȞ": 1791,
      "ŐȦǗƾ": 1792,
      "nõ": 1793,
      "çȮ": 1794,
      "ȨǚƸ": 1795,
      "KÎ": 1796,
      "ŐȨǗƲ": 1797,
      "ǫǔ": 1798,
      "ìȪ": 1799,
      "ȭǗƸ": 1800,
      "ŐȦǗƦ": 1801,
      "ȦǘǊ": 1802,
      "ȯǘǍ": 1803,
      "ȨǚƦ": 1804,
      "ȥǖǄ": 1805,
      "ìȢ": 1806,
      "ŐȘǖ": 1807,
      "ȪǗǄ": 1808,
      "ŜȞǖ": 1809,
      "Őșǖ": 1810,
      "ǞǕ": 1811,
      "ȧǖǄ": 1812,
      "ŜȚǗ": 1813,
      "ǧƺ": 1814,
      "íȟ": 1815,
      "Ûȟ": 1816,
      "ǡƺ": 1817,
      "ȯǡƸ": 1818,
      "ǧƦV": 1819,
      "ȦǘƲ": 1820,
      "Ȥǖǐ": 1821,
      "äț": 1822,
      "ȯǙƬ": 1823,
      "Aã": 1824,
      "ÝȬ": 1825,
      "ȣǘƲ": 1826,
      "Aç": 1827,
      "ŎȯǖǊ": 1828,
      "ÓȠ": 1829,
      "ŜȚǖ": 1830,
      "ȣǘǊ": 1831,
      "ǞƯ": 1832,
      "Ŝțǖ": 1833,
      "ȔǗ": 1834,
      "òȥ": 1835,
      "ǬƦ": 1836,
      "êȧ": 1837,
      "Ǚǆ": 1838,
      "Ȑǖ": 1839,
      "ǜǏ": 1840,
      "ǥƬ": 1841,
      "Þȟ": 1842,
      "áȯ": 1843,
      "ǣƸ": 1844,
      "ǬǊ": 1845,
      "ȢǗƦ": 1846,
      "åȬ": 1847,
      "ȭǖǊ": 1848,
      "ŜȜǗ": 1849,
      "ÑȠ": 1850,
      "ǨƬ": 1851,
      "ȟǗƦ": 1852,
      "ȯǘƵ": 1853,
      "ŎȯǖƲ": 1854,
      "ßț": 1855,
      "ȧǘǁ": 1856,
      "Öȣ": 1857,
      "BÙ": 1858,
      "ÜȦ": 1859,
      "ȮǗǊ": 1860,
      "ǡǁ": 1861,
      "êȟ": 1862,
      "ŊȠ": 1863,
      "KÓ": 1864,
      "EÃ": 1865,
      "ȣǚƬ": 1866,
      "ßȮ": 1867,
      "ȧǘƵ": 1868,
      "ȤǖǄ": 1869,
      "èȝ": 1870,
      "ȮǗƲ": 1871,
      "ȗǘ": 1872,
      "ǧƩ": 1873,
      "ìȡ": 1874,
      "ȠǘƯ": 1875,
      "Bé": 1876,
      "àȝ": 1877,
      "ǧƦU": 1878,
      "ȭǖƲ": 1879,
      "ȫǗƬ": 1880,
      "Bë": 1881,
      "KÅ": 1882,
      "ǞǍ": 1883,
      "ǟƱ": 1884,
      "ȢǖƬ": 1885,
      "ȫǘƾ": 1886,
      "ȬǖǊ": 1887,
      "Ŝȟǖ": 1888,
      "ÚȞ": 1889,
      "Ōȩ": 1890,
      "ȦǖƸ": 1891,
      "ǫƲ": 1892,
      "ȪǗƬ": 1893,
      "ŉȪǖ": 1894,
      "ïȣ": 1895,
      "ǩƸ": 1896,
      "ǭƾ": 1897,
      "ãȭ": 1898,
      "ǧƷ": 1899,
      "òȩ": 1900,
      "ǙƮ": 1901,
      "ǪƲ": 1902,
      "Ýț": 1903,
      "ȫǖƾ": 1904,
      "Uö": 1905,
      "ūȞ": 1906,
      "æț": 1907,
      "ìȧ": 1908,
      "ȣǗǇ": 1909,
      "bî": 1910,
      "ǕV": 1911,
      "òȪ": 1912,
      "êȨ": 1913,
      "ŉȨǗƦ": 1914,
      "Úȧ": 1915,
      "Cë": 1916,
      "çȜ": 1917,
      "ȦǗƯ": 1918,
      "ȬǗǐ": 1919,
      "7ó": 1920,
      "ŉȣ": 1921,
      "ðȟ": 1922,
      "ïȦ": 1923,
      "KÏ": 1924,
      "Üȡ": 1925,
      "ȫǖƦ": 1926,
      "ȨǚǄ": 1927,
      "BÞ": 1928,
      "Ȧǖǐ": 1929,
      "áȮ": 1930,
      "Öȥ": 1931,
      "ïȠ": 1932,
      "âț": 1933,
      "ȝǖƸ": 1934,
      "ȬǖƲ": 1935,
      "ȫǘƯ": 1936,
      "ǜƷ": 1937,
      "ÜȢ": 1938,
      "Őȣǖƾ": 1939,
      "ǩƾ": 1940,
      "ǠƱ": 1941,
      "Üȥ": 1942,
      "èȯ": 1943,
      "ȯǗǓ": 1944,
      "ŌȨǗǊ": 1945,
      "ȜǖƸ": 1946,
      "ȨǡƬ": 1947,
      "ȯǚǄ": 1948,
      "AÔ": 1949,
      "ūȚǗ": 1950,
      "CÌ": 1951,
      "Ýȯ": 1952,
      "ŊȯǘƦ": 1953,
      "ǡǆ": 1954,
      "ŉȫǖƾ": 1955,
      "Øȫ": 1956,
      "ȧǘǓ": 1957,
      "ŐȪǖ": 1958,
      "Ōȯǖ": 1959,
      "ȨǗǓ": 1960,
      "ǞǇ": 1961,
      "ȟǖǊ": 1962,
      "ȦǖǄ": 1963,
      "ÞȞ": 1964,
      "Úȩ": 1965,
      "ǥǐ": 1966,
      "ãȝ": 1967,
      "àȨ": 1968,
      "ŐȣǖƲ": 1969,
      "Ƞǘƻ": 1970,
      "ȟǖƲ": 1971,
      "ǨǕ": 1972,
      "ȫǘƻ": 1973,
      "ÛȞ": 1974,
      "õȠ": 1975,
      "Øȩ": 1976,
      "ȭǗǐ": 1977,
      "ȡǖƬ": 1978,
      "bë": 1979,
      "ǫƧ": 1980,
      "Ŋȥ": 1981,
      "ǞƱ": 1982,
      "Ǣǃ": 1983,
      "Ǟƽ": 1984,
      "ŐȣǖǊ": 1985,
      "ȠǖƯ": 1986,
      "KÖ": 1987,
      "Øȟ": 1988,
      "åȭ": 1989,
      "ǥǊ": 1990,
      "îȯ": 1991,
      "HÒ": 1992,
      "ȯǡǄ": 1993,
      "ŐțǗ": 1994,
      "ǩƱ": 1995,
      "ȧǡƲ": 1996,
      "òȤ": 1997,
      "ŐȨǖƲ": 1998,
      "Őȫǖ": 1999,
      "Ŝș": 2000,
      "ǚƫ": 2001,
      "ȫǘƸ": 2002,
      "ǜǃ": 2003,
      "ȠǗƯ": 2004,
      "Uü": 2005,
      "Ǣǉ": 2006,
      "ȟǖƾ": 2007,
      "ȬǗǄ": 2008,
      "Óȣ": 2009,
      "ŐȨǖƦ": 2010,
      "ŐȨǖǊ": 2011,
      "ŌȨǗƲ": 2012,
      "ȯǡǐ": 2013,
      "Aë": 2014,
      "ŜȘ": 2015,
      "ìȬ": 2016,
      "ŐȨǖƾ": 2017,
      "êȬ": 2018,
      "KÈ": 2019,
      "ȩǖƾ": 2020,
      "ŐȦǖƾ": 2021,
      "ǛǏ": 2022,
      "nó": 2023,
      "ȟǖƦ": 2024,
      "ÜȤ": 2025,
      "ǝǍ": 2026,
      "åȝ": 2027,
      "ǧƾV": 2028,
      "LÈ": 2029,
      "ȓǖ": 2030,
      "ȧǘǍ": 2031,
      "ȣǛǊ": 2032,
      "ŊȯǖƲ": 2033,
      "Cé": 2034,
      "õȦ": 2035,
      "Uø": 2036,
      "Úȫ": 2037,
      "ëȜ": 2038,
      "ȨǗƵ": 2039,
      "ÚȨ": 2040,
      "ǝǆ": 2041,
      "=×": 2042,
      "ÚȪ": 2043,
      "èȮ": 2044,
      "ðȯ": 2045,
      "íȯ": 2046,
      "áț": 2047,
      "èȜ": 2048,
      "ǚƯ": 2049,
      "Ƞǖƻ": 2050,
      "ȣǘƾ": 2051,
      "ŊȯǖǊ": 2052,
      "ŉȫǖ": 2053,
      "@×": 2054,
      "ȠǘƲ": 2055,
      "ŉȨǖ": 2056,
      "ǡƵ": 2057,
      "ȯǗǁ": 2058,
      "ȭǗǄ": 2059,
      "Ȧǘƾ": 2060,
      "ȞǗƸ": 2061,
      "ŐȣǖƦ": 2062,
      "ŐȠǖƲ": 2063,
      "EÆ": 2064,
      "ǚǇ": 2065,
      "ȝǖǄ": 2066,
      "ȨǗǁ": 2067,
      "ŊȫǖƦ": 2068,
      "ØȪ": 2069,
      "ǚƻ": 2070,
      "ȜǗƲ": 2071,
      "BÔ": 2072,
      "Ȝǖǐ": 2073,
      "ŐȦǖƦ": 2074,
      "Cã": 2075,
      "Ǜǉ": 2076,
      "GÑ": 2077,
      "bò": 2078,
      "Aå": 2079,
      "ȠǘǊ": 2080,
      "ȯǖƯ": 2081,
      "GÃ": 2082,
      "bé": 2083,
      "ŐȦǖƲ": 2084,
      "Úȝ": 2085,
      "Üȟ": 2086,
      "Bà": 2087,
      "7ô": 2088,
      "Uê": 2089,
      "ȦǛǊ": 2090,
      "ȩǖƦ": 2091,
      "ȥǖƬ": 2092,
      "ǡǇ": 2093,
      "îȞ": 2094,
      "ȦǘƯ": 2095,
      "ŐȣǗƲ": 2096,
      "ȮǗƾ": 2097,
      "ìȨ": 2098,
      "ȣǘƯ": 2099,
      "ȟǖƸ": 2100,
      "bð": 2101,
      "ȜǖǊ": 2102,
      "Bã": 2103,
      "nð": 2104,
      "òȢ": 2105,
      "ȯǘƩ": 2106,
      "ȯǗƵ": 2107,
      "Ûȧ": 2108,
      "ïȥ": 2109,
      "ūț": 2110,
      "Öȡ": 2111,
      "Ǫǐ": 2112,
      "ìȭ": 2113,
      "ŉȬǖƦ": 2114,
      "Őȗ": 2115,
      "ȜǖƲ": 2116,
      "ŐȠǖƾ": 2117,
      "ȣǛƲ": 2118,
      "ȫǘǐ": 2119,
      "ŐȠǖƸ": 2120,
      "óȠ": 2121,
      "Ŝșǖ": 2122,
      "ŉȭǖƦ": 2123,
      "ŐȣǗǊ": 2124,
      "óȦ": 2125,
      "Ȫǖƾ": 2126,
      "ȣǗǓ": 2127,
      "Uß": 2128,
      "àȜ": 2129,
      "ȝǖƬ": 2130,
      "ǝƯ": 2131,
      "Øȧ": 2132,
      "ǧƱ": 2133,
      "Ûȩ": 2134,
      "fé": 2135,
      "îȮ": 2136,
      "ȜǗǊ": 2137,
      "ȝǖǐ": 2138,
      "Þȧ": 2139,
      "ȪǖƦ": 2140,
      "Ǥǃ": 2141,
      "Ǣƺ": 2142,
      "Ŝȡǖ": 2143,
      "ãȜ": 2144,
      "ǛƱ": 2145,
      "ȠǖǇ": 2146,
      "ȠǘǇ": 2147,
      "ȧǖƬ": 2148,
      "ȨǤƦ": 2149,
      "Bè": 2150,
      "ȮǗƦ": 2151,
      "àȬ": 2152,
      "ȣǘƸ": 2153,
      "Þȩ": 2154,
      "Ȧǘƻ": 2155,
      "ȞǗǊ": 2156,
      "ÝȮ": 2157,
      "ȜǖǄ": 2158,
      "AÏ": 2159,
      "ÓȦ": 2160,
      "íȞ": 2161,
      "ȤǖƬ": 2162,
      "ŐȠǖƬ": 2163,
      "ȐǗ": 2164,
      "ŐȦǖǊ": 2165,
      "êȭ": 2166,
      "ǡƫ": 2167,
      "ŊȨǖƦ": 2168,
      "ȞǗƲ": 2169,
      "7ð": 2170,
      "Ȝǖƾ": 2171,
      "ȧǘƩ": 2172,
      "ǢƮ": 2173,
      "Ûȝ": 2174,
      "ÖȢ": 2175,
      "ǛǕ": 2176,
      "ȫǘƦ": 2177,
      "ìȟ": 2178,
      "ȫǘǇ": 2179,
      "ȨǗǍ": 2180,
      "LÉ": 2181,
      "ǢƱ": 2182,
      "ŬȚ": 2183,
      "ȯǚƬ": 2184,
      "ŐȠǖǊ": 2185,
      "òȧ": 2186,
      "ǣƬ": 2187,
      "ǥǁ": 2188,
      "Uè": 2189,
      "HÕ": 2190,
      "ȣǘƻ": 2191,
      "Ñȣ": 2192,
      "LÎ": 2193,
      "ȦǖƬ": 2194,
      "ǝǇ": 2195,
      "ȝǖǊ": 2196,
      "ȯǗǍ": 2197,
      "ǛƷ": 2198,
      "ǩǊ": 2199,
      "ŌȨǖ": 2200,
      "KÍ": 2201,
      "ŐȠǖǄ": 2202,
      "ŔȞ": 2203,
      "bõ": 2204,
      "ȨǛǇ": 2205,
      "ãȯ": 2206,
      "ŐȡǖƲ": 2207,
      "ȝǖƾ": 2208,
      "ȦǗƻ": 2209,
      "ǞƵ": 2210,
      "ȨǚƬ": 2211,
      "ŐȠǖƦ": 2212,
      "òȡ": 2213,
      "ǢƯ": 2214,
      "ŉȠ": 2215,
      "Ûȫ": 2216,
      "ØȨ": 2217,
      "òȨ": 2218,
      "ȨǛƻ": 2219,
      "&÷": 2220,
      "fç": 2221,
      "ȦǗǇ": 2222,
      "ȡǗƯ": 2223,
      "Uá": 2224,
      "ŐȨǗƾ": 2225,
      "GÈ": 2226,
      "ÜȞ": 2227,
      "ȬǗƬ": 2228,
      "ŐȤǖƾ": 2229,
      "ǡƩ": 2230,
      "fæ": 2231,
      "ȝǖƲ": 2232,
      "ȞǗƾ": 2233,
      "ŊȯǗƦ": 2234,
      "Uå": 2235,
      "ȣǖƻ": 2236,
      "KÉ": 2237,
      "ȯǖǇ": 2238,
      "òȭ": 2239,
      "ȠǗƻ": 2240,
      "ȯǗƱ": 2241,
      "ØȞ": 2242,
      "íȮ": 2243,
      "ȧǗƯ": 2244,
      "ǫǕV": 2245,
      "ǚǓ": 2246,
      "7ù": 2247,
      "ÛȪ": 2248,
      "Ŋȯǘƾ": 2249,
      "ǜǇ": 2250,
      "àȭ": 2251,
      "ȨǛƯ": 2252,
      "ȞǗƬ": 2253,
      "ÖȤ": 2254,
      "éț": 2255,
      "ȠǗǇ": 2256,
      "ȜǖƬ": 2257,
      "EÂ": 2258,
      "Ȩǖƻ": 2259,
      "ȫǘǄ": 2260,
      "ȞǗǐ": 2261,
      "ȣǖǇ": 2262,
      "ȭǗƬ": 2263,
      "GÄ": 2264,
      "ïȩ": 2265,
      "ǡƻ": 2266,
      "fë": 2267,
      "ǚƺ": 2268,
      "KÃ": 2269,
      "HÔ": 2270,
      "ǫƦY": 2271,
      "ǩǐ": 2272,
      "nô": 2273,
      "ǝǎ": 2274,
      "ïȤ": 2275,
      "ǜǍ": 2276,
      "ǡǒ": 2277,
      "ÝȚ": 2278,
      "ȫǖǐ": 2279,
      "ÙȠ": 2280,
      "Cè": 2281,
      "òȬ": 2282,
      "ȥǗƯ": 2283,
      "Þȝ": 2284,
      "ŉȨǖƦ": 2285,
      "ȟǖǄ": 2286,
      "ȞǗǄ": 2287,
      "ßȚ": 2288,
      "ǧƾU": 2289,
      "ïȪ": 2290,
      "ǜƯ": 2291,
      "ŌȨǖƲ": 2292,
      "fä": 2293,
      "ñȠ": 2294,
      "ȫǖƸ": 2295,
      "ȣǛƾ": 2296,
      "ŐȨǗƦ": 2297,
      "ŌȨǖǊ": 2298,
      "bó": 2299,
      "ȝǗƸ": 2300,
      "ÑȦ": 2301,
      "Őȡǖƾ": 2302,
      "ŌȫǖƲ": 2303,
      "ŜȘǖ": 2304,
      "ȓǗ": 2305,
      "ȦǘǇ": 2306,
      "nî": 2307,
      "Bí": 2308,
      "FØ": 2309,
      "êȞ": 2310,
      "Ǜƽ": 2311,
      "Ǩƺ": 2312,
      "ȝǗƲ": 2313,
      "äȚ": 2314,
      "ǚǍ": 2315,
      "ŌȫǖǊ": 2316,
      "ȜǖƦ": 2317,
      "ŐȢǖƾ": 2318,
      "Ŋȫǖƾ": 2319,
      "ȣǘǐ": 2320,
      "ȫǘǓ": 2321,
      "åȯ": 2322,
      "ȣǘƦ": 2323,
      "ȜǗƾ": 2324,
      "ŐȤǖƲ": 2325,
      "ÞȪ": 2326,
      "ÕȠ": 2327,
      "Bç": 2328,
      "ǕW": 2329,
      "ȩǛǊ": 2330,
      "ïȫ": 2331,
      "ŐȬǖ": 2332,
      "ŉȯǖƲ": 2333,
      "Őȥǖƾ": 2334,
      "LÑ": 2335,
      "ȥǘǊ": 2336,
      "ǫǓ": 2337,
      "Aè": 2338,
      "ȣǛǐ": 2339,
      "GÆ": 2340,
      "ǡƮ": 2341,
      "CÍ": 2342,
      "ŐȡǖƸ": 2343,
      "ǝƮ": 2344,
      "ŐȥǖǊ": 2345,
      "ǧƧ": 2346,
      "ȭǛǊ": 2347,
      "Óȥ": 2348,
      "ŐȥǖƲ": 2349,
      "ǚǒ": 2350,
      "Őȗǖ": 2351,
      "ǝƺ": 2352,
      "bñ": 2353,
      "ŉȦǗƦ": 2354,
      "7ú": 2355,
      "æȚ": 2356,
      "ŐȡǖǊ": 2357,
      "ǢƷ": 2358,
      "ÚȜ": 2359,
      "ȟǗƯ": 2360,
      "ȦǛƲ": 2361,
      "ȮǗƸ": 2362,
      "ŐȥǖƦ": 2363,
      "ȢǗƯ": 2364,
      "ūȜǖ": 2365,
      "Ǟǁ": 2366,
      "åȜ": 2367,
      "ǚǆ": 2368,
      "ȟǖǐ": 2369,
      "ȥǘƲ": 2370,
      "ȞǖǊ": 2371,
      "ȯǙƺ": 2372,
      "ȯǗǉ": 2373,
      "ȡǘƸ": 2374,
      "LÏ": 2375,
      "ŊȨǖ": 2376,
      "BÐ": 2377,
      "ŐȡǗƲ": 2378,
      "ȞǖƲ": 2379,
      "ŉȯǖǊ": 2380,
      "GË": 2381,
      "ūȚǖ": 2382,
      "ðȮ": 2383,
      "Ȟǖƾ": 2384,
      "ȯǖƻ": 2385,
      "âȚ": 2386,
      "ȣǗƵ": 2387,
      "ȯǢƦ": 2388,
      "ȯǡƬ": 2389,
      "ǡƯ": 2390,
      "Ȗǘ": 2391,
      "ÓȢ": 2392,
      "UÝ": 2393,
      "ȩǘǊ": 2394,
      "ŉȯǗƦ": 2395,
      "Ǣƫ": 2396,
      "ȣǛƸ": 2397,
      "ȦǘƸ": 2398,
      "ȪǛǊ": 2399,
      "ȣǘǄ": 2400,
      "Ǜǃ": 2401,
      "Ȧǖƻ": 2402,
      "ŊȭǖƦ": 2403,
      "ȝǖƦ": 2404,
      "ȟǖƬ": 2405,
      "ŐȢǖƦ": 2406,
      "ŬȠǖ": 2407,
      "ÛȨ": 2408,
      "ȠǘƸ": 2409,
      "GÏ": 2410,
      "ȦǛǐ": 2411,
      "Øȝ": 2412,
      "ŉȭǖƾ": 2413,
      "ŐȢǖƲ": 2414,
      "ŐȯǗƲ": 2415,
      "ŐȧǖƲ": 2416,
      "ȡǘǊ": 2417,
      "ȜǗƸ": 2418,
      "ȞǖƸ": 2419,
      "ȩǘƲ": 2420,
      "ŌȯǗǊ": 2421,
      "ŎȫǖƲ": 2422,
      "ȡǖƻ": 2423,
      "ǝƷ": 2424,
      "ȩǖǐ": 2425,
      "Ǟƻ": 2426,
      "ȣǘǇ": 2427,
      "ǙƱ": 2428,
      "çț": 2429,
      "ãȮ": 2430,
      "ȬǘǊ": 2431,
      "ŐȠǖǐ": 2432,
      "ȩǖƸ": 2433,
      "në": 2434,
      "Üȧ": 2435,
      "ȥǘƾ": 2436,
      "ȦǘƦ": 2437,
      "ȧǗƻ": 2438,
      "ȡǘƲ": 2439,
      "Ŝȗǖ": 2440,
      "ȤǗƯ": 2441,
      "ȬǘƲ": 2442,
      "ǝǏ": 2443,
      "ȝǗǄ": 2444,
      "ǧǃ": 2445,
      "ǜƵ": 2446,
      "ȝǗƾ": 2447,
      "ǝǒ": 2448,
      "ȯǗƩ": 2449,
      "7î": 2450,
      "Ǚǉ": 2451,
      "ȯǤƦ": 2452,
      "ȣǗǁ": 2453,
      "ȨǗƩ": 2454,
      "ŉȨǖƾ": 2455,
      "ǧƿ": 2456,
      "ÞȜ": 2457,
      "ȥǘƯ": 2458,
      "ǫǊ": 2459,
      "ŐȯǗǊ": 2460,
      "bí": 2461,
      "ȨǛǓ": 2462,
      "ŐȧǖǊ": 2463,
      "ŉȬǖƾ": 2464,
      "ūȘ": 2465,
      "ŉȩǖ": 2466,
      "ȪǘǊ": 2467,
      "ǚǁ": 2468,
      "ȝǗƬ": 2469,
      "ŐȤǖǊ": 2470,
      "ǝƵ": 2471,
      "7ü": 2472,
      "Ñȥ": 2473,
      "Öȟ": 2474,
      "nñ": 2475,
      "ŊȨǖƾ": 2476,
      "ïȢ": 2477,
      "óȥ": 2478,
      "ǝǃ": 2479,
      "ȦǛƾ": 2480,
      "ȬǛǊ": 2481,
      "ǝǁ": 2482,
      "ŐȤǖƦ": 2483,
      "ŐȦǗǊ": 2484,
      "ŊȯǗƾ": 2485,
      "ȭǛƾ": 2486,
      "ŸȚ": 2487,
      "ŐȦǗƲ": 2488,
      "ÛȜ": 2489,
      "Þȫ": 2490,
      "ȣǗƺ": 2491,
      "ǚƵ": 2492,
      "åȮ": 2493,
      "ŎȫǖǊ": 2494,
      "ǚƮ": 2495,
      "ŉȪǖƦ": 2496,
      "ÞȨ": 2497,
      "ŐȟǖƸ": 2498,
      "Ǣƻ": 2499,
      "ǜƫ": 2500,
      "ȭǖƦ": 2501,
      "ȤǘǊ": 2502,
      "ŐȧǖƦ": 2503,
      "ȝǗǊ": 2504,
      "ȠǘǓ": 2505,
      "ǔV": 2506,
      "Ƞǘƾ": 2507,
      "õȥ": 2508,
      "ȯǛƻ": 2509,
      "ǭƸ": 2510,
      "ȞǖǄ": 2511,
      "ǮƲ": 2512,
      "ƽU": 2513,
      "ȯǖǉ": 2514,
      "ëț": 2515,
      "Ƞǘǁ": 2516,
      "ŜȢǖ": 2517,
      "ŐȡǖƦ": 2518,
      "ǧƦW": 2519,
      "HÖ": 2520,
      "Ŝȗ": 2521,
      "ȯǙǒ": 2522,
      "ȩǛƲ": 2523,
      "Őȧǖƾ": 2524,
      "ūțǖ": 2525,
      "ȝǗǐ": 2526,
      "õȣ": 2527,
      "ȧǫƦ": 2528,
      "ȫǖǄ": 2529,
      "ȭǛƲ": 2530,
      "țǖǄ": 2531,
      "ȢǘƲ": 2532,
      "ŐȡǗƸ": 2533,
      "ƦȰ": 2534,
      "ǙǕ": 2535,
      "íȝ": 2536,
      "ȡǘƾ": 2537,
      "Ǫƾ": 2538,
      "KË": 2539,
      "Cç": 2540,
      "KÔ": 2541,
      "ȪǘƲ": 2542,
      "àț": 2543,
      "ȫǘƬ": 2544,
      "ȭǘǊ": 2545,
      "ŐȣǖƸ": 2546,
      "Ȧǘǐ": 2547,
      "KÆ": 2548,
      "ȪǖƸ": 2549,
      "ǧƼ": 2550,
      "ȩǗƯ": 2551,
      "Ƞǘǐ": 2552,
      "ȬǖƦ": 2553,
      "LÍ": 2554,
      "ȤǘƲ": 2555,
      "ǟƷ": 2556,
      "ìȯ": 2557,
      "ȠǛǐ": 2558,
      "ȭǛǐ": 2559,
      "Cå": 2560,
      "ìȮ": 2561,
      "LÃ": 2562,
      "ȠǘƵ": 2563,
      "ȨǖǇ": 2564,
      "ŐȡǖǄ": 2565,
      "LÆ": 2566,
      "ȦǖǇ": 2567,
      "ȪǛƾ": 2568,
      "ǟǃ": 2569,
      "ȯǛǇ": 2570,
      "ȦǘǓ": 2571,
      "ŐȪǖƲ": 2572,
      "ŐȡǖƬ": 2573,
      "ūș": 2574,
      "ǣƲ": 2575,
      "ȣǘǓ": 2576,
      "ȜǗǄ": 2577,
      "ní": 2578,
      "ȜǗƦ": 2579,
      "ȧǖƱ": 2580,
      "Ȫǖǐ": 2581,
      "Őȭǖ": 2582,
      "ǜǁ": 2583,
      "ȧǗǇ": 2584,
      "ȧǖǉ": 2585,
      "ŊȪǖƦ": 2586,
      "ȣǘƬ": 2587,
      "ŐȡǗƬ": 2588,
      "ǤƷ": 2589,
      "ŐȟǖƬ": 2590,
      "ǜǆ": 2591,
      "ǫǒ": 2592,
      "ǠƷ": 2593,
      "AÐ": 2594,
      "GÓ": 2595,
      "ȠǛǊ": 2596,
      "ȨǖƯ": 2597,
      "ȯǗƽ": 2598,
      "ȡǗƻ": 2599,
      "ǷƦ": 2600,
      "ïȧ": 2601,
      "ȦǘǄ": 2602,
      "ȭǘƲ": 2603,
      "ȭǘƾ": 2604,
      "bç": 2605,
      "Ȟǖǐ": 2606,
      "ȪǛƲ": 2607,
      "țǖƸ": 2608,
      "ȞǖƦ": 2609,
      "ȡǘǐ": 2610,
      "ȥǘƻ": 2611,
      "Üȝ": 2612,
      "ȨǛǍ": 2613,
      "ȩǛƾ": 2614,
      "JÇ": 2615,
      "îȝ": 2616,
      "ŐȢǖǊ": 2617,
      "ŐȯǗƦ": 2618,
      "ȣǛǄ": 2619,
      "ŌȯǗƲ": 2620,
      "Bð": 2621,
      "ǡƧ": 2622,
      "ǫƫ": 2623,
      "ȯǝƦ": 2624,
      "Zæ": 2625,
      "ŌȚǗ": 2626,
      "BÏ": 2627,
      "ȬǛƾ": 2628,
      "õȢ": 2629,
      "ȯǖƱ": 2630,
      "Ŋȫǖ": 2631,
      "ȞǖƬ": 2632,
      "ǫǕW": 2633,
      "Óȡ": 2634,
      "ȟǗƻ": 2635,
      "ȪǖǄ": 2636,
      "ÓȤ": 2637,
      "Ǩƻ": 2638,
      "ŐȟǖǄ": 2639,
      "ȬǛƲ": 2640,
      "ȫǡƦ": 2641,
      "ŐȡǗǐ": 2642,
      "ȥǗǇ": 2643,
      "ǣǕ": 2644,
      "Ñȡ": 2645,
      "ȣǗǍ": 2646,
      "bæ": 2647,
      "Ŝȣǖ": 2648,
      "Cí": 2649,
      "ŉȬǖ": 2650,
      "ȡǗǇ": 2651,
      "ŐȯǗƾ": 2652,
      "óȣ": 2653,
      "Ȓǖ": 2654,
      "țǖƬ": 2655,
      "êȮ": 2656,
      "ǯƦV": 2657,
      "áȚ": 2658,
      "ȠǛƸ": 2659,
      "ŊȢ": 2660,
      "Ȧǖǉ": 2661,
      "7ñ": 2662,
      "ŐȣǗƾ": 2663,
      "ȫǗƯ": 2664,
      "ŉȯǗƾ": 2665,
      "ŐȣǖƬ": 2666,
      "Ȣǘƻ": 2667,
      "ŐȡǗǄ": 2668,
      "ƦȰƦ": 2669,
      "ȩǘƾ": 2670,
      "ȟǖƻ": 2671,
      "óȤ": 2672,
      "ŐȪǖǊ": 2673,
      "ȡǖǇ": 2674,
      "ȜǗƬ": 2675,
      "ÑȤ": 2676,
      "êȯ": 2677,
      "ȢǘƯ": 2678,
      "ȣǗǒ": 2679,
      "ȦǖƱ": 2680,
      "ǯƬ": 2681,
      "ŊȬǖƦ": 2682,
      "òȟ": 2683,
      "ȦǛƸ": 2684,
      "0î": 2685,
      "vé": 2686,
      "òȯ": 2687,
      "ȯǛƯ": 2688,
      "0ë": 2689,
      "äȐ": 2690,
      "ȟǖǇ": 2691,
      "fâ": 2692,
      "õȤ": 2693,
      "ŌȯǘǊ": 2694,
      "ȭǖƾ": 2695,
      "JÊ": 2696,
      "ïȡ": 2697,
      "ȥǗƻ": 2698,
      "HÀ": 2699,
      "ȯǗǕ": 2700,
      "ȥǛǊ": 2701,
      "ȜǗǐ": 2702,
      "ŉȪǖƾ": 2703,
      "Zé": 2704,
      "Üȩ": 2705,
      "ǡƿ": 2706,
      "Õȣ": 2707,
      "ǯƦW": 2708,
      "0é": 2709,
      "ȪǗƯ": 2710,
      "ȭǛƦ": 2711,
      "gâ": 2712,
      "ȪǛǐ": 2713,
      "ȮǗǐ": 2714,
      "ǡǋ": 2715,
      "Ȫǘƾ": 2716,
      "LË": 2717,
      "Úț": 2718,
      "ǧǉ": 2719,
      "ȨǙǒ": 2720,
      "ȦǗǓ": 2721,
      "Ȭǖƾ": 2722,
      "ȠǖƵ": 2723,
      "Uà": 2724,
      "ȟǗǇ": 2725,
      "Uã": 2726,
      "ðȞ": 2727,
      "ȫǘƵ": 2728,
      "ȯǘǉ": 2729,
      "Ȥǖƻ": 2730,
      "Ȣǖƻ": 2731,
      "7ö": 2732,
      "ȩǖǄ": 2733,
      "ǟǏ": 2734,
      "ȡǗƺ": 2735,
      "țǖƲ": 2736,
      "Uþ": 2737,
      "ȤǘƯ": 2738,
      "ǩƯ": 2739,
      "ȠǛƲ": 2740,
      "ȫǘǁ": 2741,
      "ȢǗǇ": 2742,
      "ǞƷ": 2743,
      "ŐȣǖǄ": 2744,
      "LÂ": 2745,
      "ȥǛǐ": 2746,
      "ïȨ": 2747,
      "Ƞǖǁ": 2748,
      "Öȩ": 2749,
      "ūȗ": 2750,
      "ŐȞǖƬ": 2751,
      "ǜƻ": 2752,
      "ȯǛǍ": 2753,
      "ȭǛƸ": 2754,
      "ȯǘƱ": 2755,
      "ȥǖƻ": 2756,
      "êȝ": 2757,
      "ŬȜǖ": 2758,
      "ŐȜǖƸ": 2759,
      "ȯǖǍ": 2760,
      "ȡǘƯ": 2761,
      "Ǚƽ": 2762,
      "ŉȩǖƦ": 2763,
      "ÑȢ": 2764,
      "ȣǛƦ": 2765,
      "ȧǖǇ": 2766,
      "Őȡǖǐ": 2767,
      "ȬǛǐ": 2768,
      "Bî": 2769,
      "bì": 2770,
      "ȢǖǇ": 2771,
      "ȫǗƻ": 2772,
      "Öȫ": 2773,
      "ȨǛƵ": 2774,
      "ȯǖǓ": 2775,
      "ȨǛǁ": 2776,
      "ȩǗƻ": 2777,
      "ǠǏ": 2778,
      "GÍ": 2779,
      "ȧǖƻ": 2780,
      "BÒ": 2781,
      "Öȧ": 2782,
      "ØȜ": 2783,
      "Ȭǘƾ": 2784,
      "ǝƻ": 2785,
      "ȯǖǁ": 2786,
      "ȮǗǄ": 2787,
      "ǤƱ": 2788,
      "Bå": 2789,
      "ŊȪǖ": 2790,
      "ŉȮǖƦ": 2791,
      "ȡǗǒ": 2792,
      "Uû": 2793,
      "ȮǖǊ": 2794,
      "ȯǗƷ": 2795,
      "ǟǍ": 2796,
      "ȯǖƵ": 2797,
      "ȦǗƵ": 2798,
      "né": 2799,
      "ìȞ": 2800,
      "ȩǘƯ": 2801,
      "Ȥǘƾ": 2802,
      "ƽV": 2803,
      "bä": 2804,
      "ŊȯǖƸ": 2805,
      "Úȯ": 2806,
      "ǔW": 2807,
      "ȢǘǊ": 2808,
      "Aí": 2809,
      "ūȘǖ": 2810,
      "ŐȪǖƾ": 2811,
      "ÜȨ": 2812,
      "ŐȪǖƦ": 2813,
      "ÚȮ": 2814,
      "Üȫ": 2815,
      "Õȥ": 2816,
      "ÖȨ": 2817,
      "gä": 2818,
      "àȯ": 2819,
      "ȯǛǓ": 2820,
      "ŐȞǖƸ": 2821,
      "ǞǏ": 2822,
      "ȠǘƬ": 2823,
      "ȤǖǇ": 2824,
      "ȭǘƸ": 2825,
      "æȐ": 2826,
      "ŐȡǗǊ": 2827,
      "ȥǖƱ": 2828,
      "ŌȯǘƲ": 2829,
      "îȜ": 2830,
      "væ": 2831,
      "ñȦ": 2832,
      "Ǟǃ": 2833,
      "ȡǘƻ": 2834,
      "ȭǛǄ": 2835,
      "ȠǛƾ": 2836,
      "ȠǘǄ": 2837,
      "ȨǙƺ": 2838,
      "ȥǘǇ": 2839,
      "ŊȯǛƦ": 2840,
      "ǪƩ": 2841,
      "țǖǐ": 2842,
      "ȩǛǐ": 2843,
      "ȫǖƬ": 2844,
      "EÄ": 2845,
      "ǢƩ": 2846,
      "Yé": 2847,
      "JÌ": 2848,
      "Ȩǖǉ": 2849,
      "7ë": 2850,
      "ȢǗƻ": 2851,
      "ȦǗƺ": 2852,
      "țǖƾ": 2853,
      "óȢ": 2854,
      "nú": 2855,
      "ǨǊ": 2856,
      "ǛƯ": 2857,
      "ȠǗǁ": 2858,
      "ȠǗǓ": 2859,
      "ŉȭǖ": 2860,
      "ǡƹ": 2861,
      "vë": 2862,
      "ŊȪǖƾ": 2863,
      "ȯǙǆ": 2864,
      "ȣǘƵ": 2865,
      "ȬǛƦ": 2866,
      "Ŋȭǖƾ": 2867,
      "ȯǗƺ": 2868,
      "èț": 2869,
      "ȩǘƸ": 2870,
      "ȥǖǉ": 2871,
      "ȠǖǓ": 2872,
      "ȩǖǉ": 2873,
      "ūȝǖ": 2874,
      "Őȟǘ": 2875,
      "Ŭȝǖ": 2876,
      "ȦǗǁ": 2877,
      "ȫǘǍ": 2878,
      "ȪǗƻ": 2879,
      "ȤǗƻ": 2880,
      "ŐȞǖǄ": 2881,
      "ȨǗƱ": 2882,
      "ȨǖƱ": 2883,
      "cë": 2884,
      "íȜ": 2885,
      "ǧƹ": 2886,
      "Yæ": 2887,
      "Ƞǖǉ": 2888,
      "õȫ": 2889,
      "ãț": 2890,
      "Ǫƫ": 2891,
      "ȠǘǍ": 2892,
      "ȦǘƵ": 2893,
      "ŐȢǖƸ": 2894,
      "ūșǖ": 2895,
      "ȮǖƲ": 2896,
      "ÖȪ": 2897,
      "ȨǗƺ": 2898,
      "ŐȤǖƸ": 2899,
      "ǧƫ": 2900,
      "ŌȬǖƲ": 2901,
      "nù": 2902,
      "ȥǖǇ": 2903,
      "ǫǏ": 2904,
      "éȚ": 2905,
      "Zë": 2906,
      "Ǣǅ": 2907,
      "ŐȚǖƸ": 2908,
      "ȠǖƱ": 2909,
      "Őȟǖƾ": 2910,
      "ȣǘǍ": 2911,
      "EØ": 2912,
      "Zä": 2913,
      "ǧƾW": 2914,
      "Ùȡ": 2915,
      "Yë": 2916,
      "ȥǘƸ": 2917,
      "ŊȨǗƦ": 2918,
      "ŐȘǗ": 2919,
      "bô": 2920,
      "Ǜƫ": 2921,
      "ǟƺ": 2922,
      "ȪǘƯ": 2923,
      "Ǡǃ": 2924,
      "ŬȚǖ": 2925,
      "ŐȫǖƲ": 2926,
      "ÚȬ": 2927,
      "ȤǗǇ": 2928,
      "ȥǘǐ": 2929,
      "ȩǖƱ": 2930,
      "ŐȜǖƬ": 2931,
      "ÜȜ": 2932,
      "ȨǗǉ": 2933,
      "ŐȟǖƲ": 2934,
      "ŎȨǖƲ": 2935,
      "Rë": 2936,
      "õȪ": 2937,
      "ȩǛƸ": 2938,
      "ŐȫǖǊ": 2939,
      "ȥǛƾ": 2940,
      "ÜȪ": 2941,
      "Ȧǘǁ": 2942,
      "Ûț": 2943,
      "ȣǘǁ": 2944,
      "ŐȗǗ": 2945,
      "7ï": 2946,
      "IÇ": 2947,
      "ȭǘƦ": 2948,
      "ȦǛǄ": 2949,
      "ǥƩ": 2950,
      "ŎȨǖǊ": 2951,
      "ȦǗƷ": 2952,
      "7ø": 2953,
      "ȯǛǉ": 2954,
      "ŐȩǖƲ": 2955,
      "Aî": 2956,
      "Yä": 2957,
      "vâ": 2958,
      "ȯǝǊ": 2959,
      "ǡǎ": 2960,
      "ǥƱ": 2961,
      "ȞǗƦ": 2962,
      "gæ": 2963,
      "ŐȨǘǊ": 2964,
      "ŐȨǗƸ": 2965,
      "ȫǖǉ": 2966,
      "Cð": 2967,
      "KØ": 2968,
      "ȥǛƲ": 2969,
      "ȨǛǉ": 2970,
      "ñȣ": 2971,
      "Ǜƻ": 2972,
      "ȩǘǐ": 2973,
      "ǚǑ": 2974,
      "ǤǇ": 2975,
      "ȠǗƵ": 2976,
      "ŐȩǖƦ": 2977,
      "Ȫǘƻ": 2978,
      "ȦǗƱ": 2979,
      "ŐȫǖƦ": 2980,
      "ȯǙƮ": 2981,
      "få": 2982,
      "ÖȞ": 2983,
      "Ȩǘǉ": 2984,
      "ÙȢ": 2985,
      "ȣǖƱ": 2986,
      "Őȣǖǐ": 2987,
      "bï": 2988,
      "AÒ": 2989,
      "ñȤ": 2990,
      "ŐȖ": 2991,
      "ŐȝǖƸ": 2992,
      "ȩǘƻ": 2993,
      "õȧ": 2994,
      "ǛǇ": 2995,
      "ǜƺ": 2996,
      "ȪǖƱ": 2997,
      "Þț": 2998,
      "ȡǘƦ": 2999,
      "ȨǘƱ": 3000,
      "ǥǃ": 3001,
      "ȒǗ": 3002,
      "ȨǙǆ": 3003,
      "ȧǖƽ": 3004,
      "Ȥǘƻ": 3005,
      "ǧǓ": 3006,
      "Úȭ": 3007,
      "ȯǘǕ": 3008,
      "ȣǖǁ": 3009,
      "ȦǗǍ": 3010,
      "Ȥǖǉ": 3011,
      "ȠǖƷ": 3012,
      "ȦǛƦ": 3013,
      "ȩǛǄ": 3014,
      "åț": 3015,
      "ìȝ": 3016,
      "Őȟǖǐ": 3017,
      "ȩǗǇ": 3018,
      "ǞƩ": 3019,
      "ȦǗǉ": 3020,
      "Ǣǁ": 3021,
      "ȯǛƵ": 3022,
      "Óȧ": 3023,
      "ȠǘƦ": 3024,
      "ȩǖƬ": 3025,
      "óȪ": 3026,
      "ŐȨǘƲ": 3027,
      "ǫƸ": 3028,
      "ȯǝƲ": 3029,
      "ȣǖǓ": 3030,
      "ȢǘǇ": 3031,
      "ȦǘǍ": 3032,
      "nö": 3033,
      "ŜțǗ": 3034,
      "ȟǘƯ": 3035,
      "ŐȜǖǄ": 3036,
      "óȫ": 3037,
      "ȤǘƸ": 3038,
      "ǨƱ": 3039,
      "òȮ": 3040,
      "ŐȚǖƬ": 3041,
      "țǖǊ": 3042,
      "Őȫǖƾ": 3043,
      "Ǣǒ": 3044,
      "ȨǗƽ": 3045,
      "ŌȬǖǊ": 3046,
      "KÕ": 3047,
      "Óȟ": 3048,
      "ȣǗƩ": 3049,
      "ȯǘƽ": 3050,
      "ǝƩ": 3051,
      "%§": 3052,
      "7í": 3053,
      "ȤǖƱ": 3054,
      "nï": 3055,
      "Ƞǖƽ": 3056,
      "ǧǒ": 3057,
      "ȨǛǏ": 3058,
      "ŐȢǖƬ": 3059,
      "ŐȨǖƸ": 3060,
      "ðȝ": 3061,
      "ȬǛƸ": 3062,
      "ȬǘƦ": 3063,
      "ūȗǖ": 3064,
      "ȪǛƦ": 3065,
      ">÷": 3066,
      "ŌȪǖƲ": 3067,
      "ŐȚǖǄ": 3068,
      "ȢǘƸ": 3069,
      "ȠǖǕ": 3070,
      "ȩǛƦ": 3071,
      "ǡǓ": 3072,
      "ȨǝƦ": 3073,
      "ŐȤǖƬ": 3074,
      "Őȩǖƾ": 3075,
      "Ǥǉ": 3076,
      "Ȫǖǉ": 3077,
      "àȮ": 3078,
      "ȣǛƬ": 3079,
      "ǡǅ": 3080,
      "ȡǘǄ": 3081,
      "ǳƦ": 3082,
      "ŊȨǘƦ": 3083,
      "ǣǐ": 3084,
      "ȥǘƦ": 3085,
      "Bê": 3086,
      "ǜǎ": 3087,
      "ȠǛǄ": 3088,
      "ȭǡƦ": 3089,
      "ȨǗƷ": 3090,
      "ȠǖǍ": 3091,
      "IÊ": 3092,
      "Ȣǘƾ": 3093,
      "ǜƮ": 3094,
      "ȨǗƮ": 3095,
      "ŐȝǖƬ": 3096,
      "ȪǛƸ": 3097,
      "Ȧǖƽ": 3098,
      "GÐ": 3099,
      "KÐ": 3100,
      "ȥǛƸ": 3101,
      "ŌȪǖǊ": 3102,
      "Yç": 3103,
      "æș": 3104,
      "ȫǗǇ": 3105,
      "ŎȬǖǊ": 3106,
      "ǠǍ": 3107,
      "ȩǘƦ": 3108,
      "ŐȦǖƸ": 3109,
      "ŎȬǖƲ": 3110,
      "Bò": 3111,
      "AÌ": 3112,
      "ǜƩ": 3113,
      "ȨǗǒ": 3114,
      "ȪǖƬ": 3115,
      "Ǥǁ": 3116,
      "ȤǛǊ": 3117,
      "ǚƹ": 3118,
      "ȧǙƲ": 3119,
      "ŐȢǖǄ": 3120,
      "ȣǗƮ": 3121,
      "ǟǆ": 3122,
      "0í": 3123,
      "ǜǒ": 3124,
      "ǝƶ": 3125,
      "ȣǡǊ": 3126,
      "ȭǘǐ": 3127,
      "fè": 3128,
      "fî": 3129,
      "UØ": 3130,
      "UÌ": 3131,
      "ȦǖǕ": 3132,
      "ȟǘƻ": 3133,
      "vî": 3134,
      "ȣǗƱ": 3135,
      "ǧǀ": 3136,
      "ȠǘƩ": 3137,
      "ȕǘ": 3138,
      "ŎȭǖǊ": 3139,
      "ȨǖǓ": 3140,
      "õȡ": 3141,
      "ȦǖƵ": 3142,
      "ŐȞǖǐ": 3143,
      "äș": 3144,
      "ŐȖǖ": 3145,
      "ȣǖƵ": 3146,
      "âș": 3147,
      "ȨǗǆ": 3148,
      "ȪǘǇ": 3149,
      "vç": 3150,
      "ñȥ": 3151,
      "ǤƩ": 3152,
      "ȨǢƦ": 3153,
      "óȩ": 3154,
      "ȯǗǒ": 3155,
      "ȣǖƯ": 3156,
      "ȢǛƲ": 3157,
      "ȠǖǏ": 3158,
      "ȧǗƵ": 3159,
      "ȪǗǇ": 3160,
      "ȯǗǏ": 3161,
      "ȣǖǉ": 3162,
      "ȣǗǆ": 3163,
      "ŐȟǖǊ": 3164,
      "ŎȭǖƲ": 3165,
      "éȐ": 3166,
      "ȫǡƾ": 3167,
      "ŐȤǖǄ": 3168,
      "Ȫǘǐ": 3169,
      "ŐȩǖǊ": 3170,
      "ȩǘǇ": 3171,
      "ȯǛǁ": 3172,
      "ȯǗƮ": 3173,
      "Ǩƽ": 3174,
      "ȬǘƸ": 3175,
      "1é": 3176,
      "ŜȖǖ": 3177,
      "ȪǘƸ": 3178,
      "ȧǗǓ": 3179,
      "çȚ": 3180,
      "ȧǙǊ": 3181,
      "ǫƨ": 3182,
      "ïȟ": 3183,
      "êȜ": 3184,
      "ví": 3185,
      "ȡǘǇ": 3186,
      "gé": 3187,
      "ßș": 3188,
      "Ȩǖǁ": 3189,
      "IÌ": 3190,
      "Ǡǆ": 3191,
      "õȩ": 3192,
      "ȫǖƱ": 3193,
      "0ð": 3194,
      "Öȝ": 3195,
      "ūȞǖ": 3196,
      "ȨǖƵ": 3197,
      "ȭǖƸ": 3198,
      "gç": 3199,
      "Ýș": 3200,
      "ŐȯǖƸ": 3201,
      "ŊȯǖǄ": 3202,
      "Ǥƫ": 3203,
      "ȦǗƽ": 3204,
      "ȧǙƺ": 3205,
      "ÕȤ": 3206,
      "ŊȮǖƦ": 3207,
      "ȨǛƷ": 3208,
      "ȧǙƬ": 3209,
      "ŐȨǘƾ": 3210,
      "ȟǗǒ": 3211,
      "Rð": 3212,
      "ȠǗƺ": 3213,
      "ŐȟǖƦ": 3214,
      "ȚǖƲ": 3215,
      "ŐȦǖǄ": 3216,
      "ÙȤ": 3217,
      "Ǡƺ": 3218,
      "Ùȣ": 3219,
      "ȧǖǕ": 3220,
      "ȮǗƬ": 3221,
      "7þ": 3222,
      "ȦǖǓ": 3223,
      "fí": 3224,
      "óȡ": 3225,
      "bâ": 3226,
      "ŐȣǗƦ": 3227,
      "ǢƧ": 3228,
      "ȥǗƱ": 3229,
      "HØ": 3230,
      "bè": 3231,
      "ǝƫ": 3232,
      "ȪǘƦ": 3233,
      "Ñȟ": 3234,
      "õȨ": 3235,
      "ȧǙƾ": 3236,
      "ȨǗǏ": 3237,
      "ÙȦ": 3238,
      "Ǥƻ": 3239,
      "Ȣǘǐ": 3240,
      "ȬǗƯ": 3241,
      "ȠǗǍ": 3242,
      "Ƞǖǃ": 3243,
      "ȭǖǐ": 3244,
      "ŬȘ": 3245,
      "ȧǙǒ": 3246,
      "ȣǗƽ": 3247,
      "ǧƮ": 3248,
      "ǧǔ": 3249,
      "ÛȬ": 3250,
      "Ȧǖǁ": 3251,
      "ŌȭǖǊ": 3252,
      "cé": 3253,
      "ȠǗƱ": 3254,
      "Zâ": 3255,
      "ÕȦ": 3256,
      "ŐȨǘƦ": 3257,
      "Ÿș": 3258,
      "ŐȜǖǐ": 3259,
      "Œȟ": 3260,
      "Ùȥ": 3261,
      "Aê": 3262,
      "ÕȢ": 3263,
      "ðȜ": 3264,
      "ŉȩǖƾ": 3265,
      "HÁ": 3266,
      "ȚǖƸ": 3267,
      "ȣǖǕ": 3268,
      "ȨǖǍ": 3269,
      "fê": 3270,
      "ŊȨǗƾ": 3271,
      "ǟǁ": 3272,
      "ŊȬǖƾ": 3273,
      "Zç": 3274,
      "bê": 3275,
      "JÅ": 3276,
      "Óȩ": 3277,
      "ȣǡƦ": 3278,
      "ôȠ": 3279,
      "ȥǘǓ": 3280,
      "ȧǙǆ": 3281,
      "Óȫ": 3282,
      "ǣǊ": 3283,
      "ȨǛƱ": 3284,
      "ȤǖǕ": 3285,
      "ÔȠ": 3286,
      "ǛǓ": 3287,
      "ȨǗǕ": 3288,
      "Rî": 3289,
      "ȡǖǁ": 3290,
      "BÌ": 3291,
      "ȨǛǕ": 3292,
      "ūȟǖ": 3293,
      "ȯǛƱ": 3294,
      "ȦǘƬ": 3295,
      "ȪǛǄ": 3296,
      "ȠǗƷ": 3297,
      "ÞȬ": 3298,
      "ǥƷ": 3299,
      "ȨǝǊ": 3300,
      "ŐȣǗƸ": 3301,
      "Ùȟ": 3302,
      "ȧǗǁ": 3303,
      "gß": 3304,
      "ȢǖƱ": 3305,
      "ŐȝǖǄ": 3306,
      "ŐȬǗƲ": 3307,
      "nø": 3308,
      "ŐȨǖǄ": 3309,
      "LÄ": 3310,
      "vä": 3311,
      "ȯǗǆ": 3312,
      "ǙƷ": 3313,
      "ǙǏ": 3314,
      "ŌȭǖƲ": 3315,
      "UÛ": 3316,
      "ǟǇ": 3317,
      "Ŋȭǖ": 3318,
      "ȟǗƺ": 3319,
      "ȣǖƽ": 3320,
      "ŊȯǙƦ": 3321,
      "ìȜ": 3322,
      "ȡǖǓ": 3323,
      "Ȩǘƽ": 3324,
      "ȤǗƱ": 3325,
      "KÄ": 3326,
      "óȧ": 3327,
      "ȭǘǄ": 3328,
      "ȨǘǕ": 3329,
      "Ȣǖǉ": 3330,
      "Uý": 3331,
      "ȯǛǕ": 3332,
      "Øȯ": 3333,
      "ŬȞǖ": 3334,
      "ŊȩǖƦ": 3335,
      "ȨǙƮ": 3336,
      "ŎȪǖǊ": 3337,
      "ŐȤǖǐ": 3338,
      "ȬǖƸ": 3339,
      "ȧǗƺ": 3340,
      "ȤǗƽ": 3341,
      "ǡƳ": 3342,
      "ȤǘǇ": 3343,
      "ȦǗƮ": 3344,
      "Ñȧ": 3345,
      "Ȭǖǐ": 3346,
      "ȠǗǉ": 3347,
      "ȥǘǄ": 3348,
      "ȦǗǆ": 3349,
      "ȥǛǄ": 3350,
      "ŌȨǘǊ": 3351,
      "âȐ": 3352,
      "ȣǗǉ": 3353,
      "Õȡ": 3354,
      "țǗƸ": 3355,
      "ȥǖƽ": 3356,
      "ȥǖǁ": 3357,
      "ȣǗƷ": 3358,
      "ȟǗƵ": 3359,
      "ŐȚǖǐ": 3360,
      "ȢǛǊ": 3361,
      "ȧǗƱ": 3362,
      "UÚ": 3363,
      "ǜƹ": 3364,
      "Ŭȟǖ": 3365,
      "ȣǖǍ": 3366,
      "IÅ": 3367,
      "ŜȖǗ": 3368,
      "ȤǗƷ": 3369,
      "óȨ": 3370,
      "ȨǛƽ": 3371,
      "ȧǗǉ": 3372,
      "ȝǗƦ": 3373,
      "ȬǛǄ": 3374,
      "ȬǗƻ": 3375,
      "ȢǖǕ": 3376,
      "ȩǖǇ": 3377,
      "Cò": 3378,
      "ñȫ": 3379,
      "țǗƲ": 3380,
      "Őȡǘ": 3381,
      "ȦǙǊ": 3382,
      "ǜǅ": 3383,
      "ȞǗƯ": 3384,
      "ȡǗƵ": 3385,
      "Ǭǐ": 3386,
      "ŐȨǖǐ": 3387,
      "ȦǗǏ": 3388,
      "ȯǝƾ": 3389,
      "ǡǂ": 3390,
      "ȬǘƯ": 3391,
      "Ȥǘǐ": 3392,
      "fì": 3393,
      "ȡǖǉ": 3394,
      "ŐȦǖƬ": 3395,
      "ȦǖǍ": 3396,
      "ȫǘƩ": 3397,
      "ŐȥǖƸ": 3398,
      "ŊȯǛƾ": 3399,
      "ȦǗǃ": 3400,
      "ȥǗǉ": 3401,
      "ŎȪǖƲ": 3402,
      "ǫƦX": 3403,
      "ȡǖƯ": 3404,
      "ȣǗǕ": 3405,
      "ǧƦY": 3406,
      "ȥǗƷ": 3407,
      "ǚƩ": 3408,
      "ȧǗƷ": 3409,
      "ȨǛǃ": 3410,
      "ȩǖƻ": 3411,
      "ŊȨǛƦ": 3412,
      "ȦǗǒ": 3413,
      "ȥǖǕ": 3414,
      "ǚǅ": 3415,
      "LÓ": 3416,
      "Ñȫ": 3417,
      "ñȢ": 3418,
      "Yè": 3419,
      "țǖƦ": 3420,
      "ŉȮǖƾ": 3421,
      "ȚǖǄ": 3422,
      "ȭǛƬ": 3423,
      "ȠǛƦ": 3424,
      "ȥǗƵ": 3425,
      "ȯǖƩ": 3426,
      "ȧǖǁ": 3427,
      "ȣǙǊ": 3428,
      "Bï": 3429,
      "GÀ": 3430,
      "Ƞǖƺ": 3431,
      "ȯǘƷ": 3432,
      "ǟƫ": 3433,
      "ǟƵ": 3434,
      "1ð": 3435,
      "ȟǗǓ": 3436,
      "Cê": 3437,
      "ÚȚ": 3438,
      "1ë": 3439,
      "ȧǗƽ": 3440,
      "CÊ": 3441,
      "ȡǗǓ": 3442,
      "ȡǖǕ": 3443,
      "Ȥǖƽ": 3444,
      "ȟǗǁ": 3445,
      "ȤǗǉ": 3446,
      "ȦǗǕ": 3447,
      "ȩǘǄ": 3448,
      "ȡǖƱ": 3449,
      "1î": 3450,
      "ȨǘƷ": 3451,
      "ȭǘƯ": 3452,
      "vð": 3453,
      "òȞ": 3454,
      "UÖ": 3455,
      "ȭǘƻ": 3456,
      "ǬǄ": 3457,
      "Ȩǖƽ": 3458,
      "KÂ": 3459,
      "ǢǏ": 3460,
      "ȠǛƬ": 3461,
      "ŉȣǗƸ": 3462,
      "ȧǖǓ": 3463,
      "Að": 3464,
      "ǡƦU": 3465,
      "řȦǗƲ": 3466,
      "ǡƶ": 3467,
      "ȣǡƾ": 3468,
      "Øț": 3469,
      "ȯǗǃ": 3470,
      "ȯǛǏ": 3471,
      "ǥƻ": 3472,
      "ŐȯǘƲ": 3473,
      "ȣǖƷ": 3474,
      "Bì": 3475,
      "ȠǗƽ": 3476,
      "Ré": 3477,
      "ŐțǖƬ": 3478,
      "ȧǗǍ": 3479,
      "ȭǗƯ": 3480,
      "ŐȨǗǄ": 3481,
      "ȭǖǄ": 3482,
      "Üț": 3483,
      "?×": 3484,
      "ȩǗǓ": 3485,
      "ȧǙƮ": 3486,
      "Ǚƻ": 3487,
      "Ŋȯǖǐ": 3488,
      "ȯǘǏ": 3489,
      "ȥǛƦ": 3490,
      "Kâ": 3491,
      "ŐȨǖƬ": 3492,
      "ǡǌ": 3493,
      "ȯǜǊ": 3494,
      "ȡǘƬ": 3495,
      "ȠǗƮ": 3496,
      "ǥƺ": 3497,
      "ȠǖƩ": 3498,
      "ȚǖǊ": 3499,
      "ȥǖǓ": 3500,
      "ȥǗǓ": 3501,
      "ǙƯ": 3502,
      "ȯǛƽ": 3503,
      "ȚǖƬ": 3504,
      "Ǟǆ": 3505,
      "ȨǗǃ": 3506,
      "Ȣǖƽ": 3507,
      "ŐȞǖƾ": 3508,
      "Ȭǘǐ": 3509,
      "Țǖƾ": 3510,
      "ȣǙƲ": 3511,
      "cæ": 3512,
      "ȧǗƮ": 3513,
      "Ǚǃ": 3514,
      "ȡǖƵ": 3515,
      "6ú": 3516,
      "ñȪ": 3517,
      "ŐȯǖǄ": 3518,
      "ȟǘǇ": 3519,
      "ȧǖƵ": 3520,
      "ŐȭǖǊ": 3521,
      "ŉȯǘƦ": 3522,
      "ȭǡƾ": 3523,
      "Cî": 3524,
      "ȡǗǁ": 3525,
      "ŐȞǖƲ": 3526,
      "Őȝǖǐ": 3527,
      "ȣǗǏ": 3528,
      "ŐȭǖƲ": 3529,
      "ŸȚǖ": 3530,
      "ǚƭ": 3531,
      "ȥǗƽ": 3532,
      "Yâ": 3533,
      "ǪƯ": 3534,
      "ǟƯ": 3535,
      "ǪƧ": 3536,
      "ȚǗƸ": 3537,
      "ŐȢǖǐ": 3538,
      "ȠǗǆ": 3539,
      "TÑ": 3540,
      "]÷": 3541,
      "6õ": 3542,
      "TÖ": 3543,
      "Őȕ": 3544,
      "ȤǛƲ": 3545,
      "ǧǏ": 3546,
      "Ƞǖƫ": 3547,
      "řȦǗǊ": 3548,
      "ëȐ": 3549,
      "ȢǛǐ": 3550,
      "ȩǘǓ": 3551,
      "ǪƮ": 3552,
      "ȟǗǍ": 3553,
      "țǗƾ": 3554,
      "ȥǗǁ": 3555,
      "ȧǖƷ": 3556,
      "cî": 3557,
      "ȯǟƦ": 3558,
      "UÎ": 3559,
      "ǛƵ": 3560,
      "ȠǗǕ": 3561,
      "ŐȧǖƸ": 3562,
      "Ǭƾ": 3563,
      "ǨǄ": 3564,
      "ȥǘƬ": 3565,
      "ǧƯ": 3566,
      "ǜǑ": 3567,
      "Ȩǘƺ": 3568,
      "ȡǖƽ": 3569,
      "ÓȨ": 3570,
      "ëȚ": 3571,
      "Ȧǡƾ": 3572,
      "ȢǛƾ": 3573,
      "ȦǖƷ": 3574,
      "ŐțǖƸ": 3575,
      "IÂ": 3576,
      "ŌȦǖǊ": 3577,
      "ȥǖƵ": 3578,
      "çȐ": 3579,
      "Ȟǖƻ": 3580,
      "ǡǈ": 3581,
      "ãȚ": 3582,
      "ŌȩǖƲ": 3583,
      "ȡǘƵ": 3584,
      "Aì": 3585,
      "cä": 3586,
      "gå": 3587,
      "ŊȯǙƾ": 3588,
      "óȟ": 3589,
      "ǡǑ": 3590,
      "Zè": 3591,
      "ŊȬǖ": 3592,
      "ŜȖ": 3593,
      "ŐȥǖǄ": 3594,
      "ȦǙƲ": 3595,
      "ȦǗƩ": 3596,
      "ȩǗǉ": 3597,
      "nü": 3598,
      "ŌȨǘƲ": 3599,
      "ǢǓ": 3600,
      "Ȝǖƻ": 3601,
      "ŐȯǘǊ": 3602,
      "ȥǖƷ": 3603,
      "ǛǍ": 3604,
      "ǜǓ": 3605,
      "ǯƦU": 3606,
      "ȤǗǁ": 3607,
      "ŊȨǘƾ": 3608,
      "ȩǗƵ": 3609,
      "ŊȯǡƦ": 3610,
      "ȦǗƫ": 3611,
      "ȯǞƦ": 3612,
      "ȯǜƲ": 3613,
      "ȦǘƩ": 3614,
      "ȯǖǕ": 3615,
      "ŐȨǗǐ": 3616,
      "ŐȣǗƬ": 3617,
      "àȚ": 3618,
      "KÒ": 3619,
      "ÏȠ": 3620,
      "ȦǡǊ": 3621,
      "fá": 3622,
      "ÛȚ": 3623,
      "6ô": 3624,
      "ŐȦǖǐ": 3625,
      "ǮǕ": 3626,
      "ȣǘƩ": 3627,
      "ǞƮ": 3628,
      "țǗǐ": 3629,
      "ŊȮǖƾ": 3630,
      "cð": 3631,
      "ŌȬǖ": 3632,
      "ǞǓ": 3633,
      "gÝ": 3634,
      "ŐȣǗǄ": 3635,
      "ȢǘǄ": 3636,
      "ȯǛƷ": 3637,
      "ȯǖƽ": 3638,
      "6ò": 3639,
      "ŊȦǖƦ": 3640,
      "bå": 3641,
      "næ": 3642,
      "ŐȮǖ": 3643,
      "ȨǘǏ": 3644,
      "ȥǘƵ": 3645,
      "UÞ": 3646,
      "ŐȨǘƸ": 3647,
      "cí": 3648,
      "UÜ": 3649,
      "ȩǘƬ": 3650,
      "ØȮ": 3651,
      "nì": 3652,
      "ŎȯǘǊ": 3653,
      "ǟƮ": 3654,
      "ŊȨ": 3655,
      "ȥǡƦ": 3656,
      "gë": 3657,
      "Ǟƫ": 3658,
      "ȦǡƦ": 3659,
      "ȫǙǊ": 3660,
      "ȩǗƱ": 3661,
      "ȡǖƷ": 3662,
      "ȪǘǓ": 3663,
      "ŐȞǖǊ": 3664,
      "ïȬ": 3665,
      "ȤǖƷ": 3666,
      "ȢǘƬ": 3667,
      "ȤǗǓ": 3668,
      "ȦǙƾ": 3669,
      "ÑȨ": 3670,
      "Őȯǘƾ": 3671,
      "ǟǒ": 3672,
      "ȤǘƦ": 3673,
      "ŐȨǗƬ": 3674,
      "ȤǗƵ": 3675,
      "ȠǘǕ": 3676,
      "ȥǡƾ": 3677,
      "ȪǘǄ": 3678,
      "lé": 3679,
      "ŐȯǖƬ": 3680,
      "ȧǛǉ": 3681,
      "ȤǖƵ": 3682,
      "ȢǗǓ": 3683,
      "ÙȞ": 3684,
      "ǤƯ": 3685,
      "ȞǗƻ": 3686,
      "ȢǘǓ": 3687,
      "ñȨ": 3688,
      "ŐșǗ": 3689,
      "ǝǑ": 3690,
      "ȢǗƵ": 3691,
      "Ǣƹ": 3692,
      "ǩƩ": 3693,
      "lî": 3694,
      "Ŭș": 3695,
      "câ": 3696,
      "fã": 3697,
      "lë": 3698,
      "ÖȜ": 3699,
      "ǭǕ": 3700,
      "ȯǜƦ": 3701,
      "ŐȬǖƲ": 3702,
      "Țǖǐ": 3703,
      "ȡǗǍ": 3704,
      "ŊȧǖƦ": 3705,
      "ŌȦǖƲ": 3706,
      "ȮǘƲ": 3707,
      "ȤǛǐ": 3708,
      "țǗƬ": 3709,
      "Ȭǘƻ": 3710,
      "ŐȨǘƬ": 3711,
      "fß": 3712,
      "ȧǛƻ": 3713,
      "Ȣǖǁ": 3714,
      "GÕ": 3715,
      "fð": 3716,
      "ñȩ": 3717,
      "ǫƽ": 3718,
      "ȨǖǕ": 3719,
      "Zî": 3720,
      "Ñȩ": 3721,
      "7é": 3722,
      "ŐțǖǄ": 3723,
      "Ȧǘǉ": 3724,
      "&×": 3725,
      "ȠǗǏ": 3726,
      "ŐȜǖƲ": 3727,
      "ñȡ": 3728,
      "ȬǖǄ": 3729,
      "ȭǡǊ": 3730,
      "ŎȯǘƲ": 3731,
      "ǧǆ": 3732,
      "ŌȩǖǊ": 3733,
      "ȧǧƦ": 3734,
      "ȣǗǃ": 3735,
      "ȢǗƽ": 3736,
      "ȟǖǓ": 3737,
      "ŉȦǗƾ": 3738,
      "ÓȞ": 3739,
      "ǥƧ": 3740,
      "ȠǗǃ": 3741,
      "ȫǙƾ": 3742,
      "ȢǛƸ": 3743,
      "ȢǖƯ": 3744,
      "ȯǖƷ": 3745,
      "Ōȭǖ": 3746,
      "ȢǗƱ": 3747,
      "țǗǊ": 3748,
      "ȥǘǁ": 3749,
      "ȮǘǊ": 3750,
      "ȭǘǇ": 3751,
      "äȘ": 3752,
      "ȢǘƵ": 3753,
      "ǨǏ": 3754,
      "ȢǗǉ": 3755,
      "ȦǖǏ": 3756,
      "ȟǘƲ": 3757,
      "ȥǛǉ": 3758,
      "Őȭǖƾ": 3759,
      "ȧǧƾ": 3760,
      "Yí": 3761,
      "æȘ": 3762,
      "ȤǗǕ": 3763,
      "Ŭțǖ": 3764,
      "ŉȣǗƦ": 3765,
      "ȤǛƾ": 3766,
      "ȭǗƻ": 3767,
      "ŊȮǖ": 3768,
      "ȦǘƱ": 3769,
      "ȝǖƻ": 3770,
      "ŐȭǖƦ": 3771,
      "ȟǘƾ": 3772,
      "ȤǘǄ": 3773,
      "ȦǛǉ": 3774,
      "ȮǖƦ": 3775,
      "ȧǖƯ": 3776,
      "ȢǖƵ": 3777,
      "ȫǡǊ": 3778,
      "ȢǗǁ": 3779,
      "ȮǛǊ": 3780,
      "ȯǟǊ": 3781,
      "ŐȥǖƬ": 3782,
      "ȝǗƯ": 3783,
      "ȯǘǒ": 3784,
      "òȝ": 3785,
      "ȟǖǁ": 3786,
      "ŐȯǘƦ": 3787,
      "ǝƹ": 3788,
      "ǟƻ": 3789,
      "ȦǖƯ": 3790,
      "ȠǗǒ": 3791,
      "ȢǖǓ": 3792,
      "áș": 3793,
      "ŐȨǘǄ": 3794,
      "Ȯǘƾ": 3795,
      "ȬǗǇ": 3796,
      "èȐ": 3797,
      "ŌȧǖǊ": 3798,
      "ȣǙƾ": 3799,
      "ǥƿ": 3800,
      "ȠǡǊ": 3801,
      "ȯǘƺ": 3802,
      "ȧǗǆ": 3803,
      "ŐȬǖƾ": 3804,
      "Ûȭ": 3805,
      "ßȘ": 3806,
      "Ȥǖǁ": 3807,
      "ǧǂ": 3808,
      "ȫǖǇ": 3809,
      "ŌȬǗǊ": 3810,
      "Ǥǆ": 3811,
      "ȧǖǍ": 3812,
      "Zá": 3813,
      "cç": 3814,
      "ȥǘƱ": 3815,
      "0ç": 3816,
      "vò": 3817,
      "ǧǕV": 3818,
      "ȤǖǓ": 3819,
      "ȨǖƷ": 3820,
      "Őȯǖǐ": 3821,
      "ȫǗǓ": 3822,
      "Ȣǘǁ": 3823,
      "ǡǀ": 3824,
      "ȡǘǁ": 3825,
      "ȫǟƦ": 3826,
      "ȤǘǓ": 3827,
      "ŜȗǗ": 3828,
      "ȯǖǏ": 3829,
      "ȥǖƯ": 3830,
      "ȫǟǊ": 3831,
      "Ǚƹ": 3832,
      "ȚǗƲ": 3833,
      "LÁ": 3834,
      "ÑȞ": 3835,
      "ȢǗƺ": 3836,
      "6ù": 3837,
      "ØȬ": 3838,
      "íț": 3839,
      "ȚǗƬ": 3840,
      "ŉȦǖƦ": 3841,
      "gà": 3842,
      "ȟǘƸ": 3843,
      "ȦǙǒ": 3844,
      "ȦǛƬ": 3845,
      "ŐȡǗƾ": 3846,
      "ȣǖǏ": 3847,
      "ȡǖǃ": 3848,
      "țǗǄ": 3849,
      "IÎ": 3850,
      "ȩǗƷ": 3851,
      "ȥǖǍ": 3852,
      ")÷": 3853,
      "ñȧ": 3854,
      "ȢǖƷ": 3855,
      "ǣǃ": 3856,
      "ȧǛǇ": 3857,
      "ȧǘǉ": 3858,
      "ŐȟǗƲ": 3859,
      "ȠǗƩ": 3860,
      "ǝǅ": 3861,
      "0ò": 3862,
      "ȢǘƦ": 3863,
      "Őȥǖǐ": 3864,
      "ǙǑ": 3865,
      "ǡƭ": 3866,
      "ȤǗǃ": 3867,
      "ȪǗǓ": 3868,
      "ǟƩ": 3869,
      "ȩǛǉ": 3870,
      "ōȯǖǊ": 3871,
      "vê": 3872,
      "ǜƶ": 3873,
      "ŐȧǖǄ": 3874,
      "vß": 3875,
      "ǣƽ": 3876,
      "ŐȜǘ": 3877,
      "fà": 3878,
      "ÓȪ": 3879,
      "ŎȯǗǊ": 3880,
      "ȧǗǏ": 3881,
      "ŐȧǖƬ": 3882,
      "ȡǘǓ": 3883,
      "ȣǖǃ": 3884,
      "ǮƬ": 3885,
      "ȜǖǇ": 3886,
      "Ǣƭ": 3887,
      "ȣǙƺ": 3888,
      "ȪǗǉ": 3889,
      "ȫǖƻ": 3890,
      "ȯǙƱ": 3891,
      "gá": 3892,
      "GÁ": 3893,
      "ƦU": 3894,
      "ȮǛƾ": 3895,
      "Ǣƿ": 3896,
      "ȝǖƯ": 3897,
      "ȡǖǍ": 3898,
      "ȯǝƸ": 3899,
      "Zí": 3900,
      "ŋȨǗǊ": 3901,
      "ȩǗƽ": 3902,
      "ȫǙƲ": 3903,
      "ȠǖƮ": 3904,
      "ȡǖƺ": 3905,
      "ȯǙǉ": 3906,
      "KÁ": 3907,
      "ȩǗǁ": 3908,
      "JÎ": 3909,
      "ūȘǗ": 3910,
      "ȩǘǉ": 3911,
      "ǧƨ": 3912,
      "ȯǙƻ": 3913,
      "ȥǘǉ": 3914,
      "èȚ": 3915,
      "ȟǘǊ": 3916,
      "ȧǛƱ": 3917,
      "ȥǗǏ": 3918,
      "6ð": 3919,
      "ȫǗƵ": 3920,
      "ȣǘǕ": 3921,
      "ŌȯǛǊ": 3922,
      "Ǡǁ": 3923,
      "ȣǙǒ": 3924,
      "ŊȦǖƾ": 3925,
      "ȤǖǍ": 3926,
      "ȩǘǁ": 3927,
      "Rç": 3928,
      "ȣǗƫ": 3929,
      "ȟǖƵ": 3930,
      "ŐȬǖǊ": 3931,
      "ȥǗǃ": 3932,
      "ȤǗǏ": 3933,
      "ȟǘǓ": 3934,
      "ȤǗƺ": 3935,
      "ȡǖǏ": 3936,
      "ǩƷ": 3937,
      "ȥǗƺ": 3938,
      "ǧƽV": 3939,
      "ȣǡƲ": 3940,
      "ȨǝƲ": 3941,
      "ȡǗƱ": 3942,
      "Øȭ": 3943,
      "ŉȨǘƦ": 3944,
      "ǙǇ": 3945,
      "Ǡƫ": 3946,
      "ȣǖƺ": 3947,
      "KÛ": 3948,
      "vÝ": 3949,
      "ŐȯǗƸ": 3950,
      "ȜǗƯ": 3951,
      "ȥǗǕ": 3952,
      "ȯǟƾ": 3953,
      "ŐȬǗƦ": 3954,
      "ȬǘǇ": 3955,
      "ȢǗƷ": 3956,
      "1ç": 3957,
      "ȚǗƾ": 3958,
      "ȧǘƱ": 3959,
      "0ó": 3960,
      "ŌȬǗƲ": 3961,
      "ȥǖǏ": 3962,
      "EÙ": 3963,
      "ïȭ": 3964,
      "âȘ": 3965,
      "ȥǘǍ": 3966,
      "ŌȧǖƲ": 3967,
      "ǯƩ": 3968,
      "ȧǖǏ": 3969,
      "ŉȮǖ": 3970,
      "ŎȩǖƲ": 3971,
      "ȤǛƸ": 3972,
      "ȥǗǍ": 3973,
      "ȝǖǇ": 3974,
      "ŐȟǗƸ": 3975,
      "ȪǗƱ": 3976,
      "0æ": 3977,
      "ŉȧǖƦ": 3978,
      "ŉȯǖƸ": 3979,
      "ȪǘƬ": 3980,
      "ŐȞǖƦ": 3981,
      "ȨǗƫ": 3982,
      "Őȧǖǐ": 3983,
      "Ǩƹ": 3984,
      "ȥǡǊ": 3985,
      "ȞǖǇ": 3986,
      "LÀ": 3987,
      "ȯǛǃ": 3988,
      "ǩƮ": 3989,
      "åȚ": 3990,
      "ȮǛƦ": 3991,
      "Ŋȩǖ": 3992,
      "ȡǗƮ": 3993,
      "éș": 3994,
      "ȮǛƲ": 3995,
      "Ȩǘǒ": 3996,
      "ÝȘ": 3997,
      "ȭǖƬ": 3998,
      "ŊȨǛƾ": 3999,
      "ÎȠ": 4000,
      "Ƞǖǆ": 4001,
      "ŊȯǗǊ": 4002,
      "ȧǗǕ": 4003,
      "ǚǎ": 4004,
      "Ȧǖǃ": 4005,
      "ŊȯǘƲ": 4006,
      "ȨǖƩ": 4007,
      "ȤǘƱ": 4008,
      "ßȐ": 4009,
      "ȧǖǃ": 4010,
      "õȬ": 4011,
      "nè": 4012,
      "ŐȨǘǐ": 4013,
      "ȭǗǇ": 4014,
      "Ûȯ": 4015,
      "ȨǙǉ": 4016,
      "ȡǛǊ": 4017,
      "Ñȝ": 4018,
      "ŋȯǖǊ": 4019,
      "ȯǘƮ": 4020,
      "ȫǗǁ": 4021,
      "Ŋȩǖƾ": 4022,
      "ȜǖƯ": 4023,
      "ȡǗǆ": 4024,
      "Ȯǖƾ": 4025,
      "ȠǘƱ": 4026,
      "vè": 4027,
      "ŊȯǘǊ": 4028,
      "ǤǏ": 4029,
      "6ó": 4030,
      "Őȝǖƾ": 4031,
      "ȦǙƺ": 4032,
      "ȨǛƩ": 4033,
      "ǪƦV": 4034,
      "ôȣ": 4035,
      "Yî": 4036,
      "ŬȘǗ": 4037,
      "ŐȣǗǐ": 4038,
      "ȑǖ": 4039,
      "ȪǙǊ": 4040,
      "ȚǗƦ": 4041,
      "ȦǛǏ": 4042,
      "ȢǗǕ": 4043,
      "ȬǖƬ": 4044,
      "ȯǙƯ": 4045,
      "ȣǖƩ": 4046,
      "åȐ": 4047,
      "õȟ": 4048,
      "ȬǛƬ": 4049,
      "ȦǘǕ": 4050,
      "ïȞ": 4051,
      "ôȦ": 4052,
      "ŎȩǖǊ": 4053,
      "Ȫǖƻ": 4054,
      "ȦǘƷ": 4055,
      "ŐȬǖƦ": 4056,
      "ȨǞƸ": 4057,
      "ȡǗǉ": 4058,
      "0ì": 4059,
      "Ȫǘǁ": 4060,
      "ǨƵ": 4061,
      "Õȟ": 4062,
      "ȯǢƾ": 4063,
      "Ȥǖǃ": 4064,
      "áȐ": 4065,
      "ȤǖƯ": 4066,
      "pò": 4067,
      "ȭǘƬ": 4068,
      "ȮǛǐ": 4069,
      "ȤǖǏ": 4070,
      "Ŝȕ": 4071,
      "ȘǖƸ": 4072,
      "ȢǛƦ": 4073,
      "ȪǘƵ": 4074,
      "Zß": 4075,
      "ȫǚǊ": 4076,
      "ȨǙƱ": 4077,
      "ȥǛǏ": 4078,
      "ǥƫ": 4079,
      "ȤǘƬ": 4080,
      "ǫƦ5": 4081,
      "6î": 4082,
      "ǢƦU": 4083,
      "ȚǗǊ": 4084,
      "ȦǛƱ": 4085,
      "ŎȬǖ": 4086,
      "ǠǇ": 4087,
      "ȫǚǐ": 4088,
      "ǡƾU": 4089,
      "Őțǖǐ": 4090,
      "Ȩǡǉ": 4091,
      "ŜȘǗ": 4092,
      "Kß": 4093,
      "ȯǗƫ": 4094,
      "ȩǗǍ": 4095,
      "ŐȝǖƲ": 4096,
      "ȨǝƸ": 4097,
      "Mð": 4098,
      "ȪǛƬ": 4099,
      "ȢǘǍ": 4100,
      "ŊȯǗƲ": 4101,
      "ǤƧ": 4102,
      "Ȩǘǃ": 4103,
      "ŋȯǖƲ": 4104,
      "6ü": 4105,
      "êț": 4106,
      "ÞȚ": 4107,
      "ȩǘƱ": 4108,
      "řȟǖ": 4109,
      "ȬǡƦ": 4110,
      "Ȥǘǉ": 4111,
      "Þȯ": 4112,
      "ȯǘǃ": 4113,
      "1ä": 4114,
      "pð": 4115,
      "ȪǡƦ": 4116,
      "ǩƵ": 4117,
      "Më": 4118,
      "ȤǛǉ": 4119,
      "ȧǗǒ": 4120,
      "ȥǗƮ": 4121,
      "ŌȯǛƲ": 4122,
      "Ŏȭǖ": 4123,
      "gã": 4124,
      "Ǚǎ": 4125,
      "Ȧǘƽ": 4126,
      "ȨǖǏ": 4127,
      "Ƞǖǒ": 4128,
      "ȪǗƽ": 4129,
      "ȟǘƵ": 4130,
      "1æ": 4131,
      "ǔU": 4132,
      "Ǜǁ": 4133,
      "ŎȮǖƲ": 4134,
      "ȯǛƩ": 4135,
      "Ƞǘǉ": 4136,
      "ȪǛǉ": 4137,
      "TÓ": 4138,
      "ȪǘǍ": 4139,
      "Cï": 4140,
      "ōȯǖƲ": 4141,
      "Ȥǘǁ": 4142,
      "Þȭ": 4143,
      "ȡǗƷ": 4144,
      "ŐȬǗǊ": 4145,
      "ñȟ": 4146,
      "0ä": 4147,
      "pô": 4148,
      "ŉȯǘƾ": 4149,
      "ØȚ": 4150,
      "ǡǊU": 4151,
      "ȢǖǍ": 4152,
      "Ÿțǖ": 4153,
      "ȢǗǍ": 4154,
      "ȣǘǉ": 4155,
      "ãȐ": 4156,
      "ūȖǖ": 4157,
      "ȠǗƫ": 4158,
      "ȫǛǉ": 4159,
      "ȯǙƽ": 4160,
      "Ŭșǖ": 4161,
      "ŉȨǘƾ": 4162,
      "ŐȚǘ": 4163,
      "Ǡǒ": 4164,
      "ȩǛƬ": 4165,
      "ȦǖƩ": 4166,
      "Ȣǖǃ": 4167,
      "ȯǜƸ": 4168,
      "ȩǘƵ": 4169,
      "FÚ": 4170,
      "ŎȮǖǊ": 4171,
      "ȥǘƽ": 4172,
      "lð": 4173,
      "řȯǖƦ": 4174,
      "ȥǖǃ": 4175,
      "ȤǘǕ": 4176,
      "ȥǗǒ": 4177,
      "ȪǗƵ": 4178,
      "ǧƪ": 4179,
      "ȩǗǏ": 4180,
      "Ró": 4181,
      "vá": 4182,
      "ȜǗƻ": 4183,
      "Rì": 4184,
      "ŐȜǖƾ": 4185,
      "Ȥǘƽ": 4186,
      "AÊ": 4187,
      "JÉ": 4188,
      "ǥǉ": 4189,
      "ȫǚƲ": 4190,
      "Ŋȧǖƾ": 4191,
      "IÉ": 4192,
      "Ȧǖƺ": 4193,
      "ȚǖƦ": 4194,
      "ȣǘƱ": 4195,
      "Óȝ": 4196,
      "ȩǗǕ": 4197,
      "ȟǖƯ": 4198,
      "ȬǘǄ": 4199,
      "Rò": 4200,
      "Ùȧ": 4201,
      "Ȩǘƫ": 4202,
      "ȧǛǏ": 4203,
      "ȡǗƽ": 4204,
      "çș": 4205,
      "ȧǛƽ": 4206,
      "Ŋȡ": 4207,
      "Ƞǡƾ": 4208,
      "Ùȝ": 4209,
      "ȯǙǇ": 4210,
      "ȤǗǍ": 4211,
      "Ǟƺ": 4212,
      "Kä": 4213,
      "Ƞǘƽ": 4214,
      "vã": 4215,
      "ǡƼ": 4216,
      "ǝǓ": 4217,
      "ȤǗƫ": 4218,
      "ȪǗǁ": 4219,
      "Mò": 4220,
      "ǪƱ": 4221,
      "ŐȟǗǊ": 4222,
      "ȥǗǆ": 4223,
      "ȡǘǍ": 4224,
      "ȧǗǃ": 4225,
      "ȟǘǁ": 4226,
      "ȮǘƦ": 4227,
      "ȣǘƷ": 4228,
      "ȪǖǇ": 4229,
      "Ôȡ": 4230,
      "ȫǗǍ": 4231,
      "ȢǗƮ": 4232,
      "ŜșǗ": 4233,
      "ÔȦ": 4234,
      "6ë": 4235,
      "JÂ": 4236,
      "ȫǟƾ": 4237,
      "ŸȗǗ": 4238,
      "ȝǗƻ": 4239,
      "Ƞǘƺ": 4240,
      "KÝ": 4241,
      "ūȖ": 4242,
      "ȤǘƵ": 4243,
      "vÚ": 4244,
      "vì": 4245,
      "ŬȘǖ": 4246,
      "ȞǗǇ": 4247,
      "Ȩǖǃ": 4248,
      "ǠƮ": 4249,
      "ȠǡƦ": 4250,
      "ǢƦV": 4251,
      "ȥǘǕ": 4252,
      "ȨǝǄ": 4253,
      "Zê": 4254,
      "ȫǗƱ": 4255,
      "Bô": 4256,
      "ȨǙƻ": 4257,
      "Ȕǘ": 4258,
      "ȦǛƽ": 4259,
      "ȧǗƩ": 4260,
      "ÑȪ": 4261,
      "ŋȨǗƲ": 4262,
      "ȧǙƦ": 4263,
      "ȪǗǍ": 4264,
      "vå": 4265,
      "ǠƵ": 4266,
      "7û": 4267,
      "ȯǘǆ": 4268,
      "ȯǜǄ": 4269,
      "áȘ": 4270,
      "ŐȜǖǊ": 4271,
      "Ǚǅ": 4272,
      "ǢǑ": 4273,
      "ǙǓ": 4274,
      "ȗǖƸ": 4275,
      "ȦǘǏ": 4276,
      "Yê": 4277,
      "ȡǗǕ": 4278,
      "Ȩǝƾ": 4279,
      "ȬǘƬ": 4280,
      "ȯǜƾ": 4281,
      "ȢǘƩ": 4282,
      "ÕȞ": 4283,
      "ǩƫ": 4284,
      "ȩǙƾ": 4285,
      "ȫǛǇ": 4286,
      "ȯǤƾ": 4287,
      "ȧǛƯ": 4288,
      "ǙƵ": 4289,
      "ȧǛǍ": 4290,
      "UÏ": 4291,
      "Ǡƻ": 4292,
      "ȨǘƮ": 4293,
      "ȭǘǓ": 4294,
      "ŐȟǗƾ": 4295,
      "TÏ": 4296,
      "ŐȫǗǊ": 4297,
      "ŎȧǖǊ": 4298,
      "ȝǗǇ": 4299,
      "ȥǛƱ": 4300,
      "ȢǗǃ": 4301,
      "Ôȣ": 4302,
      "ȫǟƲ": 4303,
      "ȧǘƽ": 4304,
      "Uÿ": 4305,
      "ȘǖǄ": 4306,
      "ŐȡǗƦ": 4307,
      "ŊȯǘƸ": 4308,
      "ŐȬǗƾ": 4309,
      "ȟǗǆ": 4310,
      "Rí": 4311,
      "ȢǖǏ": 4312,
      "ȯǙǕ": 4313,
      "ȪǙƲ": 4314,
      "Ȧǘƺ": 4315,
      "ȫǛƻ": 4316,
      "ȩǙǊ": 4317,
      "ȫǚƾ": 4318,
      "ȣǖƫ": 4319,
      "ôȤ": 4320,
      "ŐȦǘƦ": 4321,
      "ïȝ": 4322,
      "ȧǛǁ": 4323,
      "ȟǖƱ": 4324,
      "řȣǗƾ": 4325,
      "ȤǛǏ": 4326,
      "Ÿșǖ": 4327,
      "ȯǞǄ": 4328,
      "Zå": 4329,
      "ÜȬ": 4330,
      "ÞȮ": 4331,
      "ȪǙƾ": 4332,
      "ȣǖƮ": 4333,
      "ȯǝǄ": 4334,
      "Ȣǖƺ": 4335,
      "ȥǘƷ": 4336,
      "6ö": 4337,
      "Yð": 4338,
      "õȭ": 4339,
      "Ǚƶ": 4340,
      "șǖƸ": 4341,
      "ȦǙǉ": 4342,
      "ȪǗƷ": 4343,
      "Ƞǘǒ": 4344,
      "ŐȦǘƾ": 4345,
      "Yå": 4346,
      "ȤǗƮ": 4347,
      "UÑ": 4348,
      "óȬ": 4349,
      "ȡǗǃ": 4350,
      "ǥǀ": 4351,
      "ȥǙƲ": 4352,
      "ȟǗƮ": 4353,
      "nç": 4354,
      "Ræ": 4355,
      "ǚƶ": 4356,
      "ǥǆ": 4357,
      "KÀ": 4358,
      "ȢǗǆ": 4359,
      "ȤǗǆ": 4360,
      "ÜȚ": 4361,
      "Yá": 4362,
      "ȞǖƯ": 4363,
      "ȥǛƬ": 4364,
      "ȢǗǏ": 4365,
      "ŉȧǖƾ": 4366,
      "Ǫǔ": 4367,
      "ȜǘƯ": 4368,
      "òȜ": 4369,
      "ǩƧ": 4370,
      "ȣǖǆ": 4371,
      "ȩǛƱ": 4372,
      "ǪǊ": 4373,
      "Ȫǡƾ": 4374,
      "uë": 4375,
      "ȯǥƦ": 4376,
      "Ǥƺ": 4377,
      "Õȧ": 4378,
      "ÛȮ": 4379,
      "Ȩǘǆ": 4380,
      "ȯǚǉ": 4381,
      "KÚ": 4382,
      "ȘǖƬ": 4383,
      "șǖǄ": 4384,
      "ȡǖƫ": 4385,
      "Rï": 4386,
      "ȧǛǓ": 4387,
      "ȧǘƷ": 4388,
      "ǝǂ": 4389,
      "ŐȝǖǊ": 4390,
      "ȪǚǊ": 4391,
      "óȭ": 4392,
      "ŉȡǗǐ": 4393,
      "ŉȦǖƾ": 4394,
      "bß": 4395,
      "ǡƴ": 4396,
      "ȚǗǄ": 4397,
      "ȠǙƺ": 4398,
      "1ì": 4399,
      "ȡǖƩ": 4400,
      "ŐȖǗ": 4401,
      "CË": 4402,
      "ȗǖƬ": 4403,
      "ȥǗƫ": 4404,
      "ȩǘƽ": 4405,
      "ȬǘǓ": 4406,
      "ŐȠǗƲ": 4407,
      "bö": 4408,
      "cì": 4409,
      "ȫǗǉ": 4410,
      "ÔȤ": 4411,
      "ȣǖǒ": 4412,
      "Rä": 4413,
      "ȫǡƲ": 4414,
      "ȩǡƦ": 4415,
      "ǜƭ": 4416,
      "ȯǙƶ": 4417,
      "ȫǖǓ": 4418,
      "ȤǘǍ": 4419,
      "6ñ": 4420,
      "ǟǎ": 4421,
      "ȫǙƦ": 4422,
      "ŐȦǗƸ": 4423,
      "ȣǫƦ": 4424,
      "ÏȤ": 4425,
      "ŊȨǖƸ": 4426,
      "ǭƲ": 4427,
      "ȣǘƺ": 4428,
      "Ǚƫ": 4429,
      "ȯǞǊ": 4430,
      "ǫǕU": 4431,
      "ǡƪ": 4432,
      "ǤƮ": 4433,
      "ȡǖǆ": 4434,
      "Üȭ": 4435,
      "ȣǘƽ": 4436,
      "ȪǘƱ": 4437,
      "řȯǖƲ": 4438,
      "ȥǙǊ": 4439,
      "ŎȯǗƲ": 4440,
      "ǥƮ": 4441,
      "ȟǗƷ": 4442,
      "ȩǘǍ": 4443,
      "Ȝǘƻ": 4444,
      "ȩǗƺ": 4445,
      "5ë": 4446,
      "ǪƦW": 4447,
      "ȯǞƾ": 4448,
      "ȧǛƵ": 4449,
      "ŐȯǘƸ": 4450,
      "Ȧǖƫ": 4451,
      "Ǟǒ": 4452,
      "ŐȝǖƦ": 4453,
      "ȜǘƲ": 4454,
      "ȡǛƾ": 4455,
      "ŐȠǗƾ": 4456,
      "Ȫǘǉ": 4457,
      "ȡǖǒ": 4458,
      "cè": 4459,
      "îț": 4460,
      "nä": 4461,
      "ȢǛǄ": 4462,
      "ȫǖƵ": 4463,
      "ǡƨ": 4464,
      "ȧǛǕ": 4465,
      "ȥǖƺ": 4466,
      "ȩǖǓ": 4467,
      "ȝǘƯ": 4468,
      "ȜǖƵ": 4469,
      "ŎȦǖƲ": 4470,
      "vÒ": 4471,
      "ȯǙǓ": 4472,
      "ŐȠǗǊ": 4473,
      "ȣǙǆ": 4474,
      "ȩǙƲ": 4475,
      "Cì": 4476,
      "ŎȧǖƲ": 4477,
      "ȩǛƽ": 4478,
      "ȩǚǊ": 4479,
      "Ȝǘƾ": 4480,
      "ȡǛƲ": 4481,
      "ȢǛƬ": 4482,
      "șǖǐ": 4483,
      "ȦǘƮ": 4484,
      "nê": 4485,
      "gè": 4486,
      "ȟǗƩ": 4487,
      "ȡǖƮ": 4488,
      "ȣǛǉ": 4489,
      "ȩǚƾ": 4490,
      "ŊȨǡƦ": 4491,
      "ǫǄ": 4492,
      "ȨǙƽ": 4493,
      "ȟǖǍ": 4494,
      "ȫǛƯ": 4495,
      "ȫǗƽ": 4496,
      "ȨǞƦ": 4497,
      "ȫǚƸ": 4498,
      "ÏȦ": 4499,
      "ȜǘƸ": 4500,
      "ȯǜǐ": 4501,
      "Zã": 4502,
      "ǪƦU": 4503,
      "lç": 4504,
      "ȩǗǃ": 4505,
      "ȟǘǍ": 4506,
      "ŉȣǗƾ": 4507,
      "ȜǘǊ": 4508,
      "ȬǙƲ": 4509,
      "ȩǛǏ": 4510,
      "ȥǘƺ": 4511,
      "ȭǙƲ": 4512,
      "ȤǛƱ": 4513,
      "Aï": 4514,
      "ȩǖǁ": 4515,
      "ȭǘǁ": 4516,
      "ǡǔ": 4517,
      "ȡǛǐ": 4518,
      "ȤǛƦ": 4519,
      "1í": 4520,
      "UÙ": 4521,
      "ȫǗƷ": 4522,
      "ȯǞƲ": 4523,
      "ȯǖǃ": 4524,
      "ŎȦǖǊ": 4525,
      "Bõ": 4526,
      "ǬƲ": 4527,
      "ȡǗƩ": 4528,
      "Öț": 4529,
      "ȬǗǓ": 4530,
      "ȧǙǉ": 4531,
      "LÔ": 4532,
      "vÔ": 4533,
      "ǚǋ": 4534,
      "ȥǛƷ": 4535,
      "Ȝǖǁ": 4536,
      "ŎȚǖ": 4537,
      "ÎȦ": 4538,
      "ȚǗǐ": 4539,
      "ŸȘǖ": 4540,
      "Zì": 4541,
      "ȥǙƾ": 4542,
      "Mí": 4543,
      "Ǣǈ": 4544,
      "Ȥǖƫ": 4545,
      "ŊȫǘƦ": 4546,
      "ŉȫǖǊ": 4547,
      "Ké": 4548,
      "ŉȯǖǄ": 4549,
      "ūȕǖ": 4550,
      "ȨǙƯ": 4551,
      "Sé": 4552,
      "aé": 4553,
      "ǥǂ": 4554,
      "ȟǖǕ": 4555,
      "Ȫǘƽ": 4556,
      "Cô": 4557,
      "5î": 4558,
      "Őȕǖ": 4559,
      "ȠǘƷ": 4560,
      "ǧƾY": 4561,
      "ŌȚǖ": 4562,
      "ȡǗǏ": 4563,
      "ȦǙǆ": 4564,
      "ȗǖǄ": 4565,
      "ȥǘƩ": 4566,
      "ȟǖǉ": 4567,
      "șǖƬ": 4568,
      "ȪǗƺ": 4569,
      "ŐȠǗƸ": 4570,
      "ȫǛƱ": 4571,
      "ȣǘǏ": 4572,
      "țǗƦ": 4573,
      "ȯǢƲ": 4574,
      "õȞ": 4575,
      "1ò": 4576,
      "ȯǙǍ": 4577,
      "ŐȟǗƬ": 4578,
      "Yì": 4579,
      "Ǚƭ": 4580,
      "ȩǡƾ": 4581,
      "ȯǡǕ": 4582,
      "Ȧǖǆ": 4583,
      "ȯǢƸ": 4584,
      "0è": 4585,
      "ȪǗǏ": 4586,
      "ȥǙǒ": 4587,
      "Ǩǒ": 4588,
      "ȟǘǐ": 4589,
      "ȞǖƵ": 4590,
      "ŌȨǛƲ": 4591,
      "ȯǙǎ": 4592,
      "ȯǖǒ": 4593,
      "ȦǛǕ": 4594,
      "ŋȡǗǊ": 4595,
      "ƼV": 4596,
      "ŜȯǖǊ": 4597,
      "ȦǖƮ": 4598,
      "ÔȢ": 4599,
      "ŌȨǛǊ": 4600,
      "ȘǖǊ": 4601,
      "ȢǘǕ": 4602,
      "ȤǛǄ": 4603,
      "ȟǖƷ": 4604,
      "ŊȧǛƦ": 4605,
      "ȦǙƦ": 4606,
      "ȟǘǄ": 4607,
      "Ȥǘƺ": 4608,
      "ȠǙǒ": 4609,
      "ȢǗǒ": 4610,
      "ȤǘƷ": 4611,
      "bá": 4612,
      "ǧƵ": 4613,
      "ȥǛƽ": 4614,
      "ǪǓ": 4615,
      "ȟǗƱ": 4616,
      "ūȕ": 4617,
      "ǙǍ": 4618,
      "Ǡǋ": 4619,
      "ȞǗƵ": 4620,
      "ȯǞƸ": 4621,
      "1õ": 4622,
      "ŐȨǛƲ": 4623,
      "ȨǞǄ": 4624,
      "ǥǏ": 4625,
      "fÝ": 4626,
      "Șǖƾ": 4627,
      "ȯǗƶ": 4628,
      "ȨǛƫ": 4629,
      "ȜǗǇ": 4630,
      "ãș": 4631,
      "ǢƵ": 4632,
      "Ōȝǖ": 4633,
      "ǨǓ": 4634,
      "ȤǗǒ": 4635,
      "řȯǖǊ": 4636,
      "ȩǡǊ": 4637,
      "FÇȫ": 4638,
      "5ó": 4639,
      "GÒ": 4640,
      "ǬǕ": 4641,
      "ȫǛǍ": 4642,
      "ȨǙǕ": 4643,
      "ȣǘǒ": 4644,
      "Îȣ": 4645,
      "LÐ": 4646,
      "ǯǐ": 4647,
      "ǝƧ": 4648,
      "Ȭǡƾ": 4649,
      "Ȧǖǒ": 4650,
      "ȣǘǆ": 4651,
      "Ïȣ": 4652,
      "ȮǘƸ": 4653,
      "ȬǗƵ": 4654,
      "ȪǡǊ": 4655,
      "Ǣǂ": 4656,
      "ȧǘǕ": 4657,
      "Șǖǐ": 4658,
      "ȩǗǆ": 4659,
      "ȬǘƵ": 4660,
      "Ǜǆ": 4661,
      "ȧǛǃ": 4662,
      "ȫǛƽ": 4663,
      "řȦǗƦ": 4664,
      "ȯǘƫ": 4665,
      "ǯƦY": 4666,
      "ǝǋ": 4667,
      "ȩǖƽ": 4668,
      "ȦǛƷ": 4669,
      "Së": 4670,
      "ȠǘƮ": 4671,
      "ȞǘƯ": 4672,
      "ȜǘǄ": 4673,
      "ȩǛǕ": 4674,
      "0ñ": 4675,
      "ȧǖƺ": 4676,
      "ȢǙƾ": 4677,
      "ȤǗƩ": 4678,
      "ȯǝǐ": 4679,
      "ȧǘǏ": 4680,
      "Ȩǖƫ": 4681,
      "ȥǘǏ": 4682,
      "ȥǖƩ": 4683,
      "ȢǘƱ": 4684,
      "ǪƸ": 4685,
      "ǫƪ": 4686,
      "LÒ": 4687,
      "țǖƯ": 4688,
      "ȪǗǕ": 4689,
      "ÕȨ": 4690,
      "ȟǖƽ": 4691,
      "ŌȦǗƲ": 4692,
      "0ô": 4693,
      "Ƞǘǆ": 4694,
      "BÍ": 4695,
      "Yß": 4696,
      "ȫǘǉ": 4697,
      "FÊȫ": 4698,
      "cß": 4699,
      "ȜǗƺ": 4700,
      "Sî": 4701,
      "ȥǗƩ": 4702,
      "ȠǘǏ": 4703,
      "Ïȡ": 4704,
      "ǝƿ": 4705,
      "ǨƩ": 4706,
      "Ȟǖǁ": 4707,
      "Ōȯǖƾ": 4708,
      "ȨǙǇ": 4709,
      "Ȝǘǐ": 4710,
      "CÉ": 4711,
      "Ȣǘǉ": 4712,
      "ȦǙƱ": 4713,
      "ȬǙƾ": 4714,
      "ȟǘƬ": 4715,
      "FÌȫ": 4716,
      "ȩǘƷ": 4717,
      "pî": 4718,
      "wî": 4719,
      "ȤǙǊ": 4720,
      "ȭǙƾ": 4721,
      "ȬǘǍ": 4722,
      "bø": 4723,
      "ȮǖƸ": 4724,
      "ȧǘƺ": 4725,
      "ȧǗƫ": 4726,
      "ȡǘƩ": 4727,
      "7ā": 4728,
      "Ǣǔ": 4729,
      "UÓ": 4730,
      "lí": 4731,
      "ȩǖǍ": 4732,
      "țǖƻ": 4733,
      "vÎ": 4734,
      "Ȩǚǉ": 4735,
      "ȥǖƮ": 4736,
      "ŐȯǘǄ": 4737,
      "řȣǗƦ": 4738,
      "Ÿȗǖ": 4739,
      "ȢǗƫ": 4740,
      "ŐȫǗƲ": 4741,
      "Aò": 4742,
      "ǚƳ": 4743,
      "ȥǙƺ": 4744,
      "ȟǗǉ": 4745,
      "ȟǖǃ": 4746,
      "ȣǘƮ": 4747,
      "ǜǌ": 4748,
      "ŐȟǗǐ": 4749,
      "ȝǘƲ": 4750,
      "ȭǙǊ": 4751,
      "ȯǖƮ": 4752,
      "ŉȫǖƸ": 4753,
      "ȬǙǊ": 4754,
      "ȫǛǕ": 4755,
      "FÊȦ": 4756,
      "ǚƿ": 4757,
      "Ȫǚƾ": 4758,
      "Ȩǖƺ": 4759,
      "ŌȮǖƲ": 4760,
      "ŌȮǖǊ": 4761,
      "Yã": 4762,
      "ŌȯǙƲ": 4763,
      "ǟƿ": 4764,
      "Ǚǁ": 4765,
      "ǜƿ": 4766,
      "0ê": 4767,
      "ȬǗǁ": 4768,
      "ȩǘǕ": 4769,
      "põ": 4770,
      "ȨǗƶ": 4771,
      "Ȥǖƺ": 4772,
      "ŉȫǖƲ": 4773,
      "Bñ": 4774,
      "ȧǚǊ": 4775,
      "ŐȦǗǄ": 4776,
      "ȥǖƫ": 4777,
      "ǠƧ": 4778,
      "ȟǖƺ": 4779,
      "0õ": 4780,
      "Râ": 4781,
      "Ǡƿ": 4782,
      "ȫǛǓ": 4783,
      "ȥǘǒ": 4784,
      "ȯǢƬ": 4785,
      "ÏȢ": 4786,
      "Ÿȝǖ": 4787,
      "ǝƭ": 4788,
      "Mô": 4789,
      "âȗ": 4790,
      "ȠǙǊ": 4791,
      "lì": 4792,
      "ŐȯǗƬ": 4793,
      "ȝǘƾ": 4794,
      "ȯǠǊ": 4795,
      "ȢǖƮ": 4796,
      "ǝǌ": 4797,
      "Ȫǚǐ": 4798,
      "ǠƯ": 4799,
      "ǨƯ": 4800,
      "ȧǖƩ": 4801,
      "ȫǘƱ": 4802,
      "ȥǛǃ": 4803,
      "ǠƩ": 4804,
      "ȫǗƺ": 4805,
      "Ȧǘǒ": 4806,
      "ïȮ": 4807,
      "ŐȯǗǄ": 4808,
      "Ôȟ": 4809,
      "Ŝȕǖ": 4810,
      "ȦǡƲ": 4811,
      "ȭǗǓ": 4812,
      "võ": 4813,
      "ŐȯǗǐ": 4814,
      "Ȧǘǃ": 4815,
      "ŜȠǖƲ": 4816,
      "řȞǖ": 4817,
      "șǖƲ": 4818,
      "ȪǘƷ": 4819,
      "ȥǙǉ": 4820,
      "ÔȞ": 4821,
      "ȮǗƯ": 4822,
      "ȣǛǏ": 4823,
      "ȪǙƦ": 4824,
      "ŌȯǙǊ": 4825,
      "ȯǖǆ": 4826,
      "ǚƴ": 4827,
      "șǖƾ": 4828,
      "ȩǚƲ": 4829,
      "ȫǛƵ": 4830,
      "ŐȜǖƦ": 4831,
      "vï": 4832,
      "Ŋȧǘƾ": 4833,
      "Ǜƺ": 4834,
      "Ŭȕ": 4835,
      "ȯǖƺ": 4836,
      "řȯǖƾ": 4837,
      "ué": 4838,
      "ǡư": 4839,
      "ȯǖƫ": 4840,
      "ȩǖƵ": 4841,
      "ȯǗǎ": 4842,
      "ȫǗǏ": 4843,
      "ȤǙǆ": 4844,
      "Ȣǖƫ": 4845,
      "Ôȥ": 4846,
      "Ȣǖǆ": 4847,
      "ȪǛǏ": 4848,
      "Ȟǘƻ": 4849,
      "'÷": 4850,
      "ȝǘƸ": 4851,
      "ǟǋ": 4852,
      "ȡǛƸ": 4853,
      "ŉȡǗƦ": 4854,
      "ȠǡƲ": 4855,
      "ȧǛƷ": 4856,
      "vñ": 4857,
      "ȯǙƷ": 4858,
      "ȬǗƱ": 4859,
      "5ð": 4860,
      "ȨǖƮ": 4861,
      "7ý": 4862,
      "ôȢ": 4863,
      "řȦǗƾ": 4864,
      "ǤǓ": 4865,
      "Ȧǘǆ": 4866,
      "ǩǓ": 4867,
      "ȥǛǕ": 4868,
      "ŜȠǖƬ": 4869,
      "Ǡƹ": 4870,
      "ȮǛƸ": 4871,
      "ȩǙǉ": 4872,
      "Bó": 4873,
      "pó": 4874,
      "ȩǗƮ": 4875,
      "Ká": 4876,
      "ßȗ": 4877,
      "řȜǖ": 4878,
      "ŐȧǗƲ": 4879,
      "Ȓǘ": 4880,
      "ȧǖƮ": 4881,
      "ǫƱ": 4882,
      "ȪǗƮ": 4883,
      "ǟǅ": 4884,
      "ȯǡǉ": 4885,
      "ǟƹ": 4886,
      "ȯǙǏ": 4887,
      "ȭǗǁ": 4888,
      "FÌȦ": 4889,
      "ȤǙǒ": 4890,
      "ŐȚǖƲ": 4891,
      "șǖǊ": 4892,
      "ȣǛƱ": 4893,
      "ôȥ": 4894,
      "ȩǗƩ": 4895,
      "cï": 4896,
      "pë": 4897,
      "ȫǛǁ": 4898,
      "ȦǛǇ": 4899,
      "6í": 4900,
      "äȗ": 4901,
      "ŐȯǘƬ": 4902,
      "ȣǘǃ": 4903,
      "ȪǛƱ": 4904,
      "bú": 4905,
      "ȟǗƽ": 4906,
      "éȘ": 4907,
      "ȪǘǕ": 4908,
      "ŐȜǗƬ": 4909,
      "ôȨ": 4910,
      "ȢǖƩ": 4911,
      "LÖ": 4912,
      "Ǩƫ": 4913,
      "Ȩǖǆ": 4914,
      "ȤǛƽ": 4915,
      "ȣǟǊ": 4916,
      "ǤƦV": 4917,
      "Ȫǖǁ": 4918,
      "ÙȜ": 4919,
      "ŐȫǗƦ": 4920,
      "ǜǂ": 4921,
      "ȢǙǊ": 4922,
      "ȨǗǎ": 4923,
      "Ȭǘǁ": 4924,
      "FÙ": 4925,
      "FÇȦ": 4926,
      "Kç": 4927,
      "ȬǗǉ": 4928,
      "ȩǚǐ": 4929,
      "ǟǓ": 4930,
      "ŋȡǗƲ": 4931,
      "ǥǓ": 4932,
      "Ȟǘƾ": 4933,
      "ðț": 4934,
      "ǚǈ": 4935,
      "và": 4936,
      "Ýȗ": 4937,
      "ǟǌ": 4938,
      "ǣƷ": 4939,
      "ȨǙǓ": 4940,
      "ȤǙƺ": 4941,
      "ȤǙǉ": 4942,
      "ŐȩǖƸ": 4943,
      "ȟǛǊ": 4944,
      "ȯǠƦ": 4945,
      "ǩǒ": 4946,
      "Ŋȯǡƾ": 4947,
      "ȩǖǕ": 4948,
      "ǥƦV": 4949,
      "ŐȠǗƬ": 4950,
      "ŊȧǘƦ": 4951,
      "Őȯǘǐ": 4952,
      "Ȯǘǐ": 4953,
      "ȯǟƲ": 4954,
      "ǚǌ": 4955,
      "ǜǈ": 4956,
      "Ŭȗǖ": 4957,
      "ȦǛǃ": 4958,
      "ȪǛǕ": 4959,
      "bù": 4960,
      "ǚǔ": 4961,
      "ȩǛƷ": 4962,
      "Ȯǘƻ": 4963,
      "Kæ": 4964,
      "Mé": 4965,
      "ȫǘƽ": 4966,
      "ŐȟǗǄ": 4967,
      "ǬƸ": 4968,
      "ȭǘƵ": 4969,
      "vÜ": 4970,
      "ÖȬ": 4971,
      "àș": 4972,
      "ǜƧ": 4973,
      "ȞǗǁ": 4974,
      "ȘǖƲ": 4975,
      "ȣǙǐ": 4976,
      "ȫǚƦ": 4977,
      "ȢǘƷ": 4978,
      "ŊȨǖǊ": 4979,
      "ȞǘǇ": 4980,
      "ȗǖǐ": 4981,
      "EÀ": 4982,
      "ȧǘǒ": 4983,
      "7ÿ": 4984,
      "cò": 4985,
      "vÕ": 4986,
      "ȥǙǆ": 4987,
      "7ì": 4988,
      "ȨǙƷ": 4989,
      "IÈ": 4990,
      "0ï": 4991,
      "ŊȯǗƸ": 4992,
      "ȥǖǒ": 4993,
      "Ǟǌ": 4994,
      "ȨǙǏ": 4995,
      "ȟǖƫ": 4996,
      "ŐȦǗǐ": 4997,
      "ȜǘǇ": 4998,
      "6ø": 4999
    },
    "merges": [
      "Ȩ Ǜ",
      "ǖ Ʋ",
      "ǖ Ǌ",
      "Ȩ ǘ",
      "ǖ ƾ",
      "ǖ Ʀ",
      "Ȩ Ǘ",
      "ȯ ǘ",
      "ȯ Ǘ",
      "ȯ Ǜ",
      "ǖ Ƹ",
      "ǖ Ǆ",
      "ȣ Ǘ",
      "ǖ ǐ",
      "Ȧ Ǘ",
      "ǖ Ƭ",
      "ȧ Ǜ",
      "ǫ Ʀ",
      "ȧ ǘ",
      "ȡ Ǘ",
      "ǡ Ǌ",
      "Ƞ Ǘ",
      "ȫ Ǜ",
      "ǡ Ʀ",
      "ȧ Ǘ",
      "ǘ Ʋ",
      "ǡ ƾ",
      "ǘ Ǌ",
      "ȯ Ǚ",
      "Ǜ Ǌ",
      "ȥ Ǘ",
      "ȟ Ǘ",
      "ǘ ƾ",
      "Ǜ Ʋ",
      "ǘ Ƹ",
      "Ȥ Ǘ",
      "Ȣ Ǘ",
      "Ȩ Ǚ",
      "ǧ Ʀ",
      "ǧ ƾ",
      "ǡ Ʋ",
      "Ǜ ǐ",
      "ȫ Ǘ",
      "Ǜ ƾ",
      "Ǜ Ƹ",
      "ȩ Ǘ",
      "ǘ ǐ",
      "ǘ Ʀ",
      "Ȫ Ǘ",
      "ǘ Ǆ",
      "Ƞ ǖ",
      "Ȭ Ǘ",
      "Ǜ Ʀ",
      "ǘ Ƭ",
      "Ǜ Ǆ",
      "ȯ ǖ",
      "Ȝ Ǘ",
      "ǖ Ư",
      "ȯ ǚ",
      "ȭ Ǘ",
      "Ǚ Ǌ",
      "Ǚ Ʋ",
      "ȣ ǖ",
      "Ȩ ǖ",
      "ȣ ǚ",
      "Ǜ Ƭ",
      "ȡ ǖ",
      "Ȟ Ǘ",
      "Ȩ ǚ",
      "Ǚ ƾ",
      "ȟ ǖ",
      "Ȧ ǖ",
      "Ȣ ǖ",
      "ȝ Ǘ",
      "Ƞ ǘ",
      "ȧ ǖ",
      "Ȥ ǖ",
      "ȥ ǖ",
      "Ǚ Ʀ",
      "ǚ Ǌ",
      "Ǥ Ʀ",
      "Ȟ ǖ",
      "Ȧ ǘ",
      "Ȝ ǖ",
      "Ǫ Ʀ",
      "ȣ ǘ",
      "ǚ Ʋ",
      "Ǣ Ʀ",
      "Ŋ ȯ",
      "Ȯ Ǘ",
      "ȝ ǖ",
      "Ȩ ǡ",
      "F Ç",
      "ȫ ǘ",
      "Ț Ǘ",
      "Ǚ ǐ",
      "Ǚ Ƹ",
      "ǚ ƾ",
      "ȩ ǖ",
      "F Ì",
      "ǚ ǐ",
      "Ő Ƞ",
      "F Ê",
      "ǝ Ǌ",
      "Ő ȣ",
      "ȥ ǘ",
      "ȫ ǖ",
      "Ȫ ǖ",
      "ǟ Ǌ",
      "Ő ȡ",
      "F Å",
      "ǚ Ƹ",
      "Ő Ȧ",
      "ǝ Ʀ",
      "ȯ ǖǊ",
      "ǥ Ʀ",
      "ȨǛ Ǌ",
      "Ț ǖ",
      "ȯ ǖƲ",
      "ț ǖ",
      "ȯ ǡ",
      "ǥ ƾ",
      "ǚ Ʀ",
      "Ȥ ǘ",
      "Ǚ Ǆ",
      "ǝ Ʋ",
      "ǝ ƾ",
      "Ȣ ǘ",
      "ȩ ǘ",
      "ț Ǘ",
      "ȨǛ Ʋ",
      "ǚ Ǆ",
      "ǯ Ʀ",
      "ǟ Ʀ",
      "ǟ ƾ",
      "Ȫ ǘ",
      "ȡ ǘ",
      "ǩ Ʀ",
      "ȨǛ ƾ",
      "Ǩ Ƹ",
      "Ő ȟ",
      "ȧ Ǚ",
      "ȨǛ Ƹ",
      "ȨǛ ǐ",
      "Ǡ Ǌ",
      "ǫ Ǖ",
      "Ő ȨǗ",
      "ǡ Ƹ",
      "F É",
      "ǜ Ǌ",
      "Ǟ Ʀ",
      "ȨǛ Ǆ",
      "Ǣ ƾ",
      "Ǥ ƾ",
      "ȨǛ Ʀ",
      "Ő Ȣ",
      "ǟ Ʋ",
      "Ő Ȥ",
      "Ǚ Ƭ",
      "Ȭ ǖ",
      "ȟ ǘ",
      "ȯ ǖƦ",
      "F Î",
      "Ő ȡǗ",
      "Ő ȥ",
      "ǜ Ʋ",
      "Ǟ Ǌ",
      "Ő ȦǗ",
      "ǚ Ƭ",
      "ȭ ǖ",
      "Ȧ Ǜ",
      "ǡ Ǆ",
      "Ő ȣǗ",
      "Ȧ Ǚ",
      "Ő Ȩ",
      "ǜ ƾ",
      "ä Ƞ",
      "ȯ ǖƾ",
      "ș ǖ",
      "ä ȣ",
      "Ǟ ƾ",
      "ǜ Ʀ",
      "ȯǛ Ǌ",
      "æ ȣ",
      "ȯǗ Ǌ",
      "Ȩǘ Ǌ",
      "Ǡ Ʀ",
      "Ǡ ƾ",
      "ȯǗ Ʋ",
      "Ȩǘ Ʋ",
      "æ Ƞ",
      "Ȭ ǘ",
      "F Â",
      "ȯǘ Ǌ",
      "ȯǘ Ʋ",
      "Ǟ Ʋ",
      "ȯǛ Ʋ",
      "ȨǛ Ƭ",
      "ȭ ǘ",
      "Ș ǖ",
      "H Ê",
      "ȥ Ǜ",
      "H Ì",
      "â Ƞ",
      "Ȩǘ ƾ",
      "ȣ Ǚ",
      "ǧ Ƹ",
      "Ő Ȫ",
      "ȯǛ ƾ",
      "ȨǗ Ǌ",
      "ȩ Ǜ",
      "ȨǗ Ʋ",
      "ȥ Ǚ",
      "ä Ȧ",
      "ǡ ǐ",
      "Ȫ Ǜ",
      "Ȩ ǡƦ",
      "ȨǗ ƾ",
      "ß Ƞ",
      "é Ƞ",
      "ȯǗ ƾ",
      "F È",
      "ȣ Ǜ",
      "Ȩǘ Ƹ",
      "Ȩ ǡǊ",
      "æ Ȧ",
      "Ő Ȟ",
      "Ǩ Ʀ",
      "Ő Ȝ",
      "Ŋ ȫ",
      "ȯǘ ƾ",
      "ȯǛ Ʀ",
      "Ő ȧ",
      "ä ȥ",
      "H Ç",
      "Ȥ Ǚ",
      "ȯǗ Ʀ",
      "F Ã",
      "C Ú",
      "ȯǘ Ʀ",
      "â ȣ",
      "E Ì",
      "ȫ Ǚ",
      "ȩ Ǚ",
      "Ȥ Ǜ",
      "ä Ȣ",
      "ǩ Ʋ",
      "Ǥ Ǆ",
      "Ȫ Ǚ",
      "æ ȥ",
      "ŉ ȫ",
      "Ƞ Ǜ",
      "Ő ȫ",
      "C Ø",
      "Ȩǘ Ʀ",
      "ä ȡ",
      "Ȩǘ ǐ",
      "ȯǛ ǐ",
      "E Ê",
      "Ș Ǘ",
      "Ȩ ǖǊ",
      "é ȣ",
      "Ǡ Ʋ",
      "ȨǗ Ʀ",
      "Ȩ ǖƲ",
      "ȯǛ Ƹ",
      "Ǥ Ƹ",
      "Ő ȝ",
      "Ȩ ǡƾ",
      "ß ȣ",
      "ȗ ǖ",
      "é Ȧ",
      "â Ȧ",
      "ȧǛ Ǌ",
      "Ő Ƞǖ",
      "Ő ȩ",
      "ȯ ǝ",
      "ǧ ƽ",
      "Ƞ Ǚ",
      "F Ñ",
      "Ȯ ǖ",
      "ä Ȥ",
      "% ÷",
      "E Ñ",
      "A Ý",
      "æ Ȣ",
      "ǧ Ǖ",
      "æ ȡ",
      "ș Ǘ",
      "Ȩǘ Ǆ",
      "Ȟ ǘ",
      "â ȥ",
      "ǡ Ƭ",
      "A ß",
      "Ȩ ǫƦ",
      "C ß",
      "â ȡ",
      "Ŋ ȭ",
      "Ő ȟǗ",
      "ȧǛ Ʋ",
      "â Ȣ",
      "ȯǛ Ǆ",
      "æ Ȥ",
      "é ȥ",
      "ȯ ǜ",
      "Ȭ Ǜ",
      "Ȩ ǡƲ",
      "á Ƞ",
      "Ǣ Ǆ",
      "Ȩǘ Ƭ",
      "Ý Ƞ",
      "ȧǛ ƾ",
      "Ő Ț",
      "ȯǘ Ƹ",
      "Ȩ ǖƦ",
      "á ȣ",
      "ȗ Ǘ",
      "ë ȣ",
      "Ȩ ǝ",
      "F Ë",
      "A Ú",
      "H Å",
      "ȭ Ǜ",
      "Ȩ ǖƾ",
      "ë Ƞ",
      "ä ȧ",
      "ß Ȧ",
      "Ȝ ǘ",
      "ȝ ǘ",
      "Ŋ Ȫ",
      "ë Ȧ",
      "F Ï",
      "â Ȥ",
      "H Î",
      "ǧ Ʋ",
      "F Ä",
      "æ ȧ",
      "ç ȣ",
      "ß Ȣ",
      "C Ý",
      "Ȯ ǘ",
      "é Ȣ",
      "ȯǘ ǐ",
      "ß ȥ",
      "C Ó",
      "ȧǛ ǐ",
      "é ȡ",
      "A Ø",
      "E Î",
      "á Ȧ",
      "ȧǛ Ʀ",
      "Ȩ Ǟ",
      "ä ȩ",
      "ß ȡ",
      "ȫǛ Ǌ",
      "ç Ƞ",
      "ȯǗ Ƹ",
      "ȧǛ Ƹ",
      "F Æ",
      "Ǖ U",
      "ȯ Ǣ",
      "æ ȩ",
      "B Ú",
      "é Ȥ",
      "ä ȫ",
      "ç Ȧ",
      "Ő ȠǗ",
      "H É",
      "Ő Ȭ",
      "ȫǛ Ʋ",
      "ȯ ǡǊ",
      "ŉ ȭ",
      "ä Ȫ",
      "Ŋ Ȭ",
      "ǡ ǉ",
      "ȯ Ǟ",
      "ȧǛ Ǆ",
      "Ý ȣ",
      "Ő ȭ",
      "E Ï",
      "á Ȣ",
      "ȯǘ Ǆ",
      "æ ȫ",
      "ä ȟ",
      "á ȥ",
      "B Ø",
      "ȨǗ Ƹ",
      "H Ñ",
      "ë ȥ",
      "ç ȥ",
      "ŉ Ȭ",
      "F Í",
      "á ȡ",
      "ß Ȥ",
      "æ Ȫ",
      "ȯǛ Ƭ",
      "ä Ȩ",
      "Ȭ Ǚ",
      "ȫǛ ƾ",
      "Ȗ ǖ",
      "ȯǗ ǐ",
      "æ Ȩ",
      "Ȣ Ǚ",
      "ȣǗ ƾ",
      "æ ȟ",
      "ȯ ǡƦ",
      "â ȧ",
      "ȯ ǖƸ",
      "é ȫ",
      "Ő ț",
      "Ŋ Ȧ",
      "Ő ȡǖ",
      "C Ö",
      "é ȧ",
      "ȡ Ǚ",
      "â ȟ",
      "é ȩ",
      "ȦǗ Ʋ",
      "á Ȥ",
      "Ȣ Ǜ",
      "Ý Ȧ",
      "C Õ",
      "ȦǗ Ǌ",
      "ȫ ǖƲ",
      "é Ȫ",
      "ȭ Ǚ",
      "Ý ȥ",
      "ȣǗ Ǌ",
      "Ő ȣǖ",
      "Ǣ Ƹ",
      "U ð",
      "ȣǗ Ʋ",
      "F Ó",
      "ȯǗ Ǆ",
      "ȯ ǖǐ",
      "ǜ Ǆ",
      "ǡ Ǖ",
      "Ý ȡ",
      "ȣǗ Ƹ",
      "B ß",
      "U î",
      "E Ç",
      "ȦǗ Ʀ",
      "ȯǙ Ǌ",
      "ȫ ǖǊ",
      "â ȩ",
      "ȯǘ Ƭ",
      "Ǣ Ʋ",
      "U ë",
      "ȫǛ ǐ",
      "ȨǗ Ǆ",
      "ȨǗ ǐ",
      "ȯ ǖǄ",
      "Ȫ ǚ",
      "è Ƞ",
      "ǜ Ƹ",
      "Ý Ȣ",
      "ȯǙ Ʋ",
      "ȧ ǚ",
      "â ȫ",
      "ȯ ǟ",
      "ȯ ǡƾ",
      "ȧǘ Ʋ",
      "ç Ȥ",
      "ǣ Ʀ",
      "ȩ ǚ",
      "è ȣ",
      "ß ȟ",
      "é Ȩ",
      "Ő ȜǗ",
      "ȫǛ Ʀ",
      "ȧǛ Ƭ",
      "Ǥ Ƭ",
      "Ŝ Ƞ",
      "ǡ ƽ",
      "ǫ ǐ",
      "ç ȡ",
      "ȯ ǡƲ",
      "ȦǗ ƾ",
      "ȧ ǖǊ",
      "ȧǘ Ǌ",
      "è Ȧ",
      "H È",
      "Ȯ Ǚ",
      "ȧǘ ƾ",
      "ȫǛ Ƹ",
      "Ő Ȣǖ",
      "A Ö",
      "Ŋ ȩ",
      "ȧ ǖƲ",
      "é ȟ",
      "ȫǛ Ǆ",
      "â Ȫ",
      "Ȧ ǖǊ",
      "ŉ Ȫ",
      "E Ó",
      "ȫ ǚ",
      "Ǥ Ʋ",
      "ë Ȥ",
      "Ý Ȥ",
      "H Ï",
      "Ŋ Ȯ",
      "Ȧ ǖƲ",
      "ț ǘ",
      "ȣǗ Ʀ",
      "â Ȩ",
      "ǜ ǐ",
      "ç Ȣ",
      "ȨǗ Ƭ",
      "ȯǗ Ƭ",
      "Ő ȟǖ",
      "U ò",
      "C Î",
      "ǟ Ƹ",
      "U í",
      "Ǫ Ǖ",
      "Ǣ Ǌ",
      "Ý ȟ",
      "Ȩǘ Ư",
      "Ǣ Ƭ",
      "à Ƞ",
      "á ȟ",
      "ã ȣ",
      "å Ƞ",
      "ë ȡ",
      "Ŋȯ ǖƦ",
      "C Ü",
      "ȨǙ Ʋ",
      "ȣǗ ǐ",
      "ȯǙ ƾ",
      "Ő Ȟǖ",
      "ȨǙ Ǌ",
      "A â",
      "ȣ ǖƲ",
      "ë ȫ",
      "Ǡ Ƹ",
      "Ȯ Ǜ",
      "ã Ƞ",
      "ȣ ǖǊ",
      "ǧ Ƭ",
      "ȧǘ Ƹ",
      "ŉ ȩ",
      "ǫ Ƭ",
      "Ő ȧǗ",
      "ǟ Ǆ",
      "ë ȩ",
      "ë Ȣ",
      "á ȧ",
      "Ő ȬǗ",
      "A Û",
      "î Ƞ",
      "Ȩǘ ƻ",
      "ä Ȭ",
      "Ǫ Ƭ",
      "% ×",
      "î Ȧ",
      "ȯ ǖƬ",
      "Ő ȢǗ",
      "ȯ ǫƦ",
      "A Ó",
      "Ő Ȝǖ",
      "ß ȧ",
      "í ȣ",
      "ǝ Ǆ",
      "C Ñ",
      "ȦǗ Ƹ",
      "Ȗ Ǘ",
      "Ȩ ǧƦ",
      "ä Ȟ",
      "ȕ ǖ",
      "è ȥ",
      "Ȩ ǖƸ",
      "ë Ȫ",
      "Ō Ȭ",
      "ŉ Ȧ",
      "B Ý",
      "å ȣ",
      "ë ȧ",
      "ȡ Ǜ",
      "Ǟ Ƹ",
      "ä ȭ",
      "ã Ȧ",
      "í Ƞ",
      "C Û",
      "æ Ȭ",
      "ǧ Ǆ",
      "ç ȧ",
      "î ȣ",
      "ȯǙ Ʀ",
      "Ȫ ǖǊ",
      "Ő Ȥǖ",
      "ǝ Ƹ",
      "ç ȩ",
      "Ő ȤǗ",
      "F Ð",
      "A á",
      "æ Ȟ",
      "Ő ȫǗ",
      "Ȫ ǖƲ",
      "U õ",
      "à ȣ",
      "æ ȭ",
      "í Ȧ",
      "Ț ǘ",
      "é Ȭ",
      "ß ȩ",
      "â Ȟ",
      "è Ȥ",
      "Ō ȭ",
      "ȨǙ ƾ",
      "Ǣ Ǖ",
      "ǜ Ƭ",
      "ȫǛ Ƭ",
      "Ǩ Ʋ",
      "B Ó",
      "Ȩ ǧƾ",
      "ȣǗ Ǆ",
      "ǡ Ʊ",
      "Ŋ ȧ",
      "Ő ȝǖ",
      "å Ȧ",
      "ȧǘ Ʀ",
      "ȧǘ Ǆ",
      "E Å",
      "ã ȥ",
      "C á",
      "Ŝ ȟ",
      "ȡǗ Ʋ",
      "ȧǘ ǐ",
      "ç ȟ",
      "ð Ƞ",
      "H Ë",
      "A ä",
      "Ǟ Ǆ",
      "ç ȫ",
      "ȡǗ Ǌ",
      "ȯ Ǡ",
      "ŉ ȯǖƦ",
      "ç Ȫ",
      "î ȥ",
      "E É",
      "Ȩǘ Ǉ",
      "Ú Ƞ",
      "ð Ȧ",
      "B Ö",
      "è Ȣ",
      "Ȭ ǚ",
      "ß Ȟ",
      "Ȩ ǖǐ",
      "ȥ ǖƲ",
      "ȦǗ ǐ",
      "A Õ",
      "à Ȧ",
      "ð ȣ",
      "ȦǗ Ǆ",
      "å ȥ",
      "B á",
      "ȡǗ Ƹ",
      "é ȭ",
      "Ȩ ǖǄ",
      "E Í",
      "ȩ ǖǊ",
      "ȧǘ Ƭ",
      "Ő ȯǖ",
      "ß ȫ",
      "Ǥ Ǌ",
      "ȥ ǖǊ",
      "ȩ ǖƲ",
      "ǫƦ V",
      "ǧ Ǌ",
      "ȣǗ Ƭ",
      "ã Ȥ",
      "ȣ ǖƾ",
      "ȟ Ǚ",
      "Ǯ Ʀ",
      "Ȩǘ Ǔ",
      "ŉ Ȯ",
      "à ȥ",
      "Ŋȯ ǖƾ",
      "Ő Ȧǖ",
      "Ő ȥǗ",
      "è ȡ",
      "ǟ ǐ",
      "H Í",
      "ß Ȫ",
      "C Ù",
      "ã Ȣ",
      "Ŝ Ȝ",
      "ȣ ǖƦ",
      "ǭ Ʀ",
      "ë Ȩ",
      "Ŝ ȡ",
      "E È",
      "ã ȡ",
      "ä ȝ",
      "H Ã",
      "à ȡ",
      "A Ü",
      "ǫƦ U",
      "F À",
      "Û Ƞ",
      "Ȥ ǖǊ",
      "B Õ",
      "B Ü",
      "Ý ȧ",
      "Þ Ƞ",
      "ȬǗ Ʋ",
      "ǥ ƽ",
      "å Ȣ",
      "Ő ȥǖ",
      "æ ȝ",
      "ȬǗ Ǌ",
      "Ý Ȟ",
      "á ȩ",
      "æ ȯ",
      "Ő Ȯ",
      "ȠǗ Ʋ",
      "ȧǗ Ʋ",
      "Ǥ ǐ",
      "ȨǙ Ʀ",
      "G Ç",
      "ȕ Ǘ",
      "ȠǗ Ƹ",
      "ȫǗ Ʋ",
      "Ŏ ȭ",
      "â ȝ",
      "ǯ Ǖ",
      "Ő ȪǗ",
      "ǚ ǉ",
      "ȫǗ Ǌ",
      "ä ȯ",
      "ȧǗ Ƹ",
      "ê Ƞ",
      "à Ȣ",
      "> ×",
      "å Ȥ",
      "ȠǗ Ǌ",
      "H Ó",
      "é Ȟ",
      "ë ȟ",
      "Ú ȣ",
      "ȯǘ Ư",
      "è ȧ",
      "í ȥ",
      "ǝ ǐ",
      "Ő Țǖ",
      "å ȡ",
      "Ȥ ǖƲ",
      "ǚ Ǖ",
      "ß ȝ",
      "A Ñ",
      "ǥ Ʋ",
      "á ȫ",
      "ǜ ǉ",
      "ȡǗ ǐ",
      "ë Ȭ",
      "ǟ Ƭ",
      "ç Ȩ",
      "ȩǗ Ʋ",
      "â ȭ",
      "ǥ Ƹ",
      "U ó",
      "Ƞ ǖǊ",
      "Ƞ ǖƲ",
      "è ȩ",
      "á Ȫ",
      "ȯǘ ƻ",
      "ȡǗ ƾ",
      "ǧ ǐ",
      "ȦǗ Ƭ",
      "Ő ȧǖ",
      "Ø Ƞ",
      "U ì",
      "ǥ Ǖ",
      "ë ȭ",
      "ß Ȩ",
      "E Ð",
      "à Ȥ",
      "è ȫ",
      "â Ȭ",
      "ȧǗ Ǌ",
      "Ǡ Ǆ",
      "H Â",
      "á Ȟ",
      "G Ì",
      "ǝ Ƭ",
      "î Ȥ",
      "ȧǗ ƾ",
      "ȩǗ Ǌ",
      "Ő Ȩǖ",
      "K Ê",
      "ð ȥ",
      "Ő țǖ",
      "ê Ȧ",
      "è Ȫ",
      "ê ȣ",
      "Ȣ ǖƲ",
      "ȠǗ ƾ",
      "Ȩǘ ǁ",
      "Ý ȩ",
      "U é",
      "î Ȫ",
      "ȧ ǖƾ",
      "ū ȜǗ",
      "ò Ƞ",
      "î ȫ",
      "ȥǗ Ƹ",
      "ȣ ǖƸ",
      "ȯǚ Ǌ",
      "Ŏ Ȭ",
      "C Þ",
      "G Ê",
      "Ý ȫ",
      "Ȣ ǖǊ",
      "ȧ ǖƦ",
      "î ȩ",
      "A à",
      "ǚ Ǐ",
      "ȡ ǖƲ",
      "ȨǙ Ƹ",
      "ȠǗ Ǆ",
      "ȡ ǖǊ",
      "Ŝ ȝ",
      "C ä",
      "ȭǗ Ʋ",
      "B ä",
      "ȟǗ Ʋ",
      "ȥǗ Ǌ",
      "ȠǗ ǐ",
      "ȥǗ Ʋ",
      "á Ȩ",
      "ȢǗ Ʋ",
      "ǝ ǉ",
      "B Û",
      "Ǟ ǐ",
      "Ƞ ǖƦ",
      "Ǡ ǐ",
      "ǚ Ʊ",
      "ȩǗ ƾ",
      "ǣ ƾ",
      "Ú Ȧ",
      "ȣǚ Ʋ",
      "æ Ȯ",
      "è ȟ",
      "ȡǗ Ǆ",
      "Ő ȚǗ",
      "Ő ȞǗ",
      "Ǣ ǐ",
      "ȣǚ Ǌ",
      "Ƞ ǖƸ",
      "ì Ȧ",
      "Ő Ș",
      "7 ò",
      "ŉ ȯǖƾ",
      "ȥ ǖƦ",
      "Ƞ ǖƾ",
      "ȯǘ Ǉ",
      "ȭǗ Ǌ",
      "é ȯ",
      "Ý Ȫ",
      "Ő ȝǗ",
      "î Ȣ",
      "Ǡ ǉ",
      "ǩ Ǖ",
      "ã ȧ",
      "ȥ ǖƾ",
      "Ǥ Ǖ",
      "Ȩǡ Ƹ",
      "ȯǚ Ʋ",
      "í Ȥ",
      "ì ȣ",
      "ǫ ƾ",
      "ȡǗ Ʀ",
      "Ú ȥ",
      "â ȯ",
      "ç Ȟ",
      "Ő ș",
      "ȥǗ ƾ",
      "Ȩ ǖƬ",
      "ȫǗ ƾ",
      "å ȧ",
      "Ō ȯǖǊ",
      "ã ȩ",
      "ȢǗ Ƹ",
      "ǜ Ʊ",
      "í ȫ",
      "Ǟ Ƭ",
      "ȠǗ Ƭ",
      "ȨǙ ǐ",
      "æ Ȝ",
      "C Ô",
      "ȟ Ǜ",
      "Ý ȝ",
      "Ȣ ǖƦ",
      "H Ð",
      "ð ȫ",
      "E Ë",
      "ä Ȝ",
      "â Ȝ",
      "ì Ƞ",
      "ȤǗ Ʋ",
      "Ø Ȧ",
      "Ȩǘ Ǎ",
      "ȤǗ Ƹ",
      "Þ ȣ",
      "ȯǙ ǐ",
      "å ȩ",
      "Ŝ Ȟ",
      "H Æ",
      "Ø ȣ",
      "ǫƦ W",
      "Ŋ Ȥ",
      "ǚ Ʒ",
      "ȩǗ Ƹ",
      "ç Ȭ",
      "í Ȫ",
      "Ō ȯǖƲ",
      "Ŋ ȣ",
      "ǣ Ǆ",
      "Ǩ ƾ",
      "ȢǗ Ǌ",
      "E Ö",
      "ð Ȫ",
      "í Ȣ",
      "í ȩ",
      "ð ȩ",
      "Ȕ ǖ",
      "î ȡ",
      "Ƞ ǖǐ",
      "ȟǗ Ǌ",
      "A æ",
      "ȪǗ Ʋ",
      "Û ȣ",
      "ê ȥ",
      "Ȩǘ Ƶ",
      "ȫ ǘǊ",
      "ð Ȥ",
      "ǟ Ǖ",
      "ȤǗ Ǌ",
      "Ú Ȣ",
      "ç ȭ",
      "ǜ Ǖ",
      "G Å",
      "ȯǙ Ƹ",
      "Ŝ Ț",
      "ȧǗ ǐ",
      "ȧǗ Ǆ",
      "A Þ",
      "ȢǗ ƾ",
      "Ǩ ǐ",
      "C æ",
      "ã ȟ",
      "ȫ ǘƲ",
      "H Ä",
      "ǚ ƽ",
      "é ȝ",
      "ò Ȧ",
      "î ȧ",
      "Ȣ ǖƾ",
      "Ǣ ǆ",
      "ȡǗ Ƭ",
      "á ȝ",
      "Ǡ Ǖ",
      "ǫ Ʃ",
      "ò ȣ",
      "ȯǚ ƾ",
      "à ȟ",
      "ß Ȝ",
      "ȡ ǖƾ",
      "ȯǗ Ư",
      "ȥǗ Ǆ",
      "7 õ",
      "ȤǗ ƾ",
      "ë ȯ",
      "ȬǗ ƾ",
      "à ȧ",
      "ȟǗ ƾ",
      "Ŋ ȯǖ",
      "ß Ȭ",
      "è Ȩ",
      "Ý Ȩ",
      "ǟ ǉ",
      "ȣǚ Ƹ",
      "F Ö",
      "ȟǗ Ƹ",
      "Ȩǚ Ǌ",
      "Ƞ ǖǄ",
      "ȪǗ Ǌ",
      "ì ȥ",
      "ȡ ǖƸ",
      "í ȧ",
      "ȫǗ Ʀ",
      "Ȧ ǖƾ",
      "ǩ Ƭ",
      "ȫǗ Ƹ",
      "ȥǗ ǐ",
      "ß ȭ",
      "B æ",
      "ȨǙ Ǆ",
      "Û Ȧ",
      "Ü Ƞ",
      "Ú ȡ",
      "ǜ ƽ",
      "ä Ȯ",
      "ȧǗ Ʀ",
      "ȡ ǖƦ",
      "ȧǘ Ư",
      "Ø ȥ",
      "C Ð",
      "ȣǚ ǐ",
      "L Ê",
      "ȧǗ Ƭ",
      "Ǩ Ʒ",
      "ȭǗ ƾ",
      "Þ Ȧ",
      "ǝ Ǖ",
      "ȣǚ ƾ",
      "U ô",
      "Ý Ȝ",
      "é Ȯ",
      "Ő ȯǖƲ",
      "Ȣ ǖƸ",
      "å Ȫ",
      "F Á",
      "ǝ Ʊ",
      "í ȡ",
      "ȣǚ Ʀ",
      "ȟǗ Ǆ",
      "Ő ȯǖǊ",
      "ȯǘ Ǔ",
      "å ȟ",
      "å ȫ",
      "Ő ȯǖƦ",
      "ê Ȥ",
      "Ȩǚ Ʋ",
      "A Î",
      "Û ȥ",
      "ȨǗ Ư",
      "Þ ȥ",
      "Ŝ Ȝǖ",
      "ȣ ǖǄ",
      "G Î",
      "ǡ Ʒ",
      "è Ȭ",
      "ȭǗ Ʀ",
      "ȯ ǧƦ",
      "Ȧ ǖƦ",
      "ū Ȝ",
      "ȪǗ ƾ",
      "C â",
      "ç ȝ",
      "ã ȫ",
      "ë Ȟ",
      "B Ñ",
      "ȯǗ ƻ",
      "U ï",
      "ȥǗ Ƭ",
      "ū ȟ",
      "ȪǗ Ƹ",
      "E Ò",
      "ȢǗ ǐ",
      "ã Ȫ",
      "U æ",
      "ȯǚ Ʀ",
      "ȣ ǖǐ",
      "ȯǙ Ǆ",
      "Ú Ȥ",
      "ǧ ƻ",
      "ȤǗ Ǆ",
      "ð ȧ",
      "Ő ȯǖƾ",
      "ȨǗ ƻ",
      "F Õ",
      "ȩǗ Ʀ",
      "ð Ȣ",
      "Ǡ Ƭ",
      "ǡ Ǎ",
      "Û ȡ",
      "ȢǗ Ǆ",
      "ǚ ǃ",
      "Ƞ ǖƬ",
      "ȤǗ ǐ",
      "A Ù",
      "ǥ Ǆ",
      "C Ï",
      "î ȭ",
      "ǝ ƽ",
      "à ȩ",
      "Ȩǡ Ǆ",
      "E Ô",
      "ȧ ǖƸ",
      "ȧ ǡƦ",
      "B Î",
      "ð ȡ",
      "ê Ȣ",
      "Ō Ȯ",
      "î Ȭ",
      "ȟǗ Ƭ",
      "Ǚ ƺ",
      "L Ì",
      "Ȩǡ ǐ",
      "í Ȩ",
      "ȡ ǖǐ",
      "ȠǗ Ʀ",
      "U ç",
      "G Â",
      "ȧǘ ƻ",
      "ȧ ǡǊ",
      "Ŝ ț",
      "Ö Ƞ",
      "L Ç",
      "U ä",
      "ì Ȥ",
      "ȯ ǧƾ",
      "î Ȩ",
      "Þ ȡ",
      "Ŭ ȟ",
      "Þ Ȣ",
      "á ȭ",
      "ȩǗ ǐ",
      "ȬǗ Ʀ",
      "Ŕ ȟ",
      "ê ȡ",
      "Ș ǘ",
      "ȤǗ Ƭ",
      "á Ȭ",
      "Ȥ ǖƦ",
      "U ñ",
      "â Ȯ",
      "ð ȭ",
      "Ǣ ƽ",
      "ȢǗ Ƭ",
      "K Ñ",
      "ȥǗ Ʀ",
      "Ŝ Ƞǖ",
      "Ŏ Ȯ",
      "Ǚ ǒ",
      "ŉȫ ǖƦ",
      "Ȩǘ Ʃ",
      "ȥ ǖƸ",
      "Ȣ ǖǐ",
      "C Ò",
      "ȯǗ Ǉ",
      "ŉ ȯǖ",
      "Ø ȡ",
      "Ȥ ǖƾ",
      "Ǡ ƽ",
      "ȣǗ Ư",
      "ȟǗ ǐ",
      "n ò",
      "ǡ ǃ",
      "á Ȝ",
      "ȩǗ Ǆ",
      "ȯǘ ǁ",
      "ã Ȟ",
      "ã Ȩ",
      "K Ç",
      "Þ Ȥ",
      "Û Ȣ",
      "ǧ ǁ",
      "ȧ ǡƾ",
      "K Ì",
      "ș ǘ",
      "ŐȨǗ Ǌ",
      "C à",
      "Ø Ȣ",
      "ë ȝ",
      "è ȭ",
      "ȣǚ Ǆ",
      "ǟ ƽ",
      "ȫǗ ǐ",
      "è Ȟ",
      "Ȩǚ ƾ",
      "é Ȝ",
      "Û Ȥ",
      "Ú ȟ",
      "ê ȩ",
      "ȨǙ Ƭ",
      "G É",
      "í ȭ",
      "Ō Ȫ",
      "Ŕ Ȧ",
      "ȯǚ ǐ",
      "Ȣ ǖǄ",
      "F Ò",
      "ȪǗ Ʀ",
      "Ǣ Ǉ",
      "Ő ȩǖ",
      "ȣ ǖƬ",
      "ū Ț",
      "ì ȩ",
      "Ǥ ƽ",
      "ê ȫ",
      "A é",
      "U ú",
      "à Ȟ",
      "Ǟ ǉ",
      "ß ȯ",
      "B â",
      "ȧ ǖǐ",
      "à ȫ",
      "ȥ ǖǐ",
      "å Ȩ",
      "U ù",
      "ð Ȭ",
      "Ȩǚ ǐ",
      "ë Ȯ",
      "ȣǗ ƻ",
      "Ő ȯǗ",
      "ȡ ǖǄ",
      "ȤǗ Ʀ",
      "ȯǚ Ƹ",
      "ȧǘ Ǉ",
      "ȫǗ Ǆ",
      "í Ȭ",
      "Ý ȭ",
      "ð Ȩ",
      "ȪǗ ǐ",
      "ê Ȫ",
      "ȩǗ Ƭ",
      "F Ô",
      "Ō ȫ",
      "ì ȫ",
      "î ȟ",
      "ǡ Ǐ",
      "L Å",
      "Ü ȣ",
      "Ȥ ǖƸ",
      "à Ȫ",
      "ã Ȭ",
      "ȨǗ Ǉ",
      "Ö Ȧ",
      "ç ȯ",
      "ȬǗ Ƹ",
      "ŉ ȨǗƾ",
      "E Õ",
      "U â",
      "Ø Ȥ",
      "Ŝ ȝǖ",
      "ò ȫ",
      "å Ȟ",
      "ŐȦǗ ƾ",
      "n õ",
      "ç Ȯ",
      "Ȩǚ Ƹ",
      "K Î",
      "ŐȨǗ Ʋ",
      "ǫ ǔ",
      "ì Ȫ",
      "ȭǗ Ƹ",
      "ŐȦǗ Ʀ",
      "Ȧ ǘǊ",
      "ȯǘ Ǎ",
      "Ȩǚ Ʀ",
      "ȥ ǖǄ",
      "ì Ȣ",
      "Ő Șǖ",
      "ȪǗ Ǆ",
      "Ŝ Ȟǖ",
      "Ő șǖ",
      "Ǟ Ǖ",
      "ȧ ǖǄ",
      "Ŝ ȚǗ",
      "ǧ ƺ",
      "í ȟ",
      "Û ȟ",
      "ǡ ƺ",
      "ȯǡ Ƹ",
      "ǧƦ V",
      "Ȧ ǘƲ",
      "Ȥ ǖǐ",
      "ä ț",
      "ȯǙ Ƭ",
      "A ã",
      "Ý Ȭ",
      "ȣ ǘƲ",
      "A ç",
      "Ŏ ȯǖǊ",
      "Ó Ƞ",
      "Ŝ Țǖ",
      "ȣ ǘǊ",
      "Ǟ Ư",
      "Ŝ țǖ",
      "Ȕ Ǘ",
      "ò ȥ",
      "Ǭ Ʀ",
      "ê ȧ",
      "Ǚ ǆ",
      "Ȑ ǖ",
      "ǜ Ǐ",
      "ǥ Ƭ",
      "Þ ȟ",
      "á ȯ",
      "ǣ Ƹ",
      "Ǭ Ǌ",
      "ȢǗ Ʀ",
      "å Ȭ",
      "ȭ ǖǊ",
      "Ŝ ȜǗ",
      "Ñ Ƞ",
      "Ǩ Ƭ",
      "ȟǗ Ʀ",
      "ȯǘ Ƶ",
      "Ŏ ȯǖƲ",
      "ß ț",
      "ȧǘ ǁ",
      "Ö ȣ",
      "B Ù",
      "Ü Ȧ",
      "ȮǗ Ǌ",
      "ǡ ǁ",
      "ê ȟ",
      "Ŋ Ƞ",
      "K Ó",
      "E Ã",
      "ȣǚ Ƭ",
      "ß Ȯ",
      "ȧǘ Ƶ",
      "Ȥ ǖǄ",
      "è ȝ",
      "ȮǗ Ʋ",
      "ȗ ǘ",
      "ǧ Ʃ",
      "ì ȡ",
      "Ƞǘ Ư",
      "B é",
      "à ȝ",
      "ǧƦ U",
      "ȭ ǖƲ",
      "ȫǗ Ƭ",
      "B ë",
      "K Å",
      "Ǟ Ǎ",
      "ǟ Ʊ",
      "Ȣ ǖƬ",
      "ȫ ǘƾ",
      "Ȭ ǖǊ",
      "Ŝ ȟǖ",
      "Ú Ȟ",
      "Ō ȩ",
      "Ȧ ǖƸ",
      "ǫ Ʋ",
      "ȪǗ Ƭ",
      "ŉ Ȫǖ",
      "ï ȣ",
      "ǩ Ƹ",
      "ǭ ƾ",
      "ã ȭ",
      "ǧ Ʒ",
      "ò ȩ",
      "Ǚ Ʈ",
      "Ǫ Ʋ",
      "Ý ț",
      "ȫ ǖƾ",
      "U ö",
      "ū Ȟ",
      "æ ț",
      "ì ȧ",
      "ȣǗ Ǉ",
      "b î",
      "Ǖ V",
      "ò Ȫ",
      "ê Ȩ",
      "ŉ ȨǗƦ",
      "Ú ȧ",
      "C ë",
      "ç Ȝ",
      "ȦǗ Ư",
      "ȬǗ ǐ",
      "7 ó",
      "ŉ ȣ",
      "ð ȟ",
      "ï Ȧ",
      "K Ï",
      "Ü ȡ",
      "ȫ ǖƦ",
      "Ȩǚ Ǆ",
      "B Þ",
      "Ȧ ǖǐ",
      "á Ȯ",
      "Ö ȥ",
      "ï Ƞ",
      "â ț",
      "ȝ ǖƸ",
      "Ȭ ǖƲ",
      "ȫǘ Ư",
      "ǜ Ʒ",
      "Ü Ȣ",
      "Őȣ ǖƾ",
      "ǩ ƾ",
      "Ǡ Ʊ",
      "Ü ȥ",
      "è ȯ",
      "ȯǗ Ǔ",
      "Ō ȨǗǊ",
      "Ȝ ǖƸ",
      "Ȩǡ Ƭ",
      "ȯǚ Ǆ",
      "A Ô",
      "ū ȚǗ",
      "C Ì",
      "Ý ȯ",
      "Ŋ ȯǘƦ",
      "ǡ ǆ",
      "ŉȫ ǖƾ",
      "Ø ȫ",
      "ȧǘ Ǔ",
      "Ő Ȫǖ",
      "Ō ȯǖ",
      "ȨǗ Ǔ",
      "Ǟ Ǉ",
      "ȟ ǖǊ",
      "Ȧ ǖǄ",
      "Þ Ȟ",
      "Ú ȩ",
      "ǥ ǐ",
      "ã ȝ",
      "à Ȩ",
      "Őȣ ǖƲ",
      "Ƞǘ ƻ",
      "ȟ ǖƲ",
      "Ǩ Ǖ",
      "ȫǘ ƻ",
      "Û Ȟ",
      "õ Ƞ",
      "Ø ȩ",
      "ȭǗ ǐ",
      "ȡ ǖƬ",
      "b ë",
      "ǫ Ƨ",
      "Ŋ ȥ",
      "Ǟ Ʊ",
      "Ǣ ǃ",
      "Ǟ ƽ",
      "Őȣ ǖǊ",
      "Ƞǖ Ư",
      "K Ö",
      "Ø ȟ",
      "å ȭ",
      "ǥ Ǌ",
      "î ȯ",
      "H Ò",
      "ȯǡ Ǆ",
      "Ő țǗ",
      "ǩ Ʊ",
      "ȧ ǡƲ",
      "ò Ȥ",
      "ŐȨ ǖƲ",
      "Ő ȫǖ",
      "Ŝ ș",
      "ǚ ƫ",
      "ȫ ǘƸ",
      "ǜ ǃ",
      "ȠǗ Ư",
      "U ü",
      "Ǣ ǉ",
      "ȟ ǖƾ",
      "ȬǗ Ǆ",
      "Ó ȣ",
      "ŐȨ ǖƦ",
      "ŐȨ ǖǊ",
      "Ō ȨǗƲ",
      "ȯǡ ǐ",
      "A ë",
      "Ŝ Ș",
      "ì Ȭ",
      "ŐȨ ǖƾ",
      "ê Ȭ",
      "K È",
      "ȩ ǖƾ",
      "ŐȦ ǖƾ",
      "Ǜ Ǐ",
      "n ó",
      "ȟ ǖƦ",
      "Ü Ȥ",
      "ǝ Ǎ",
      "å ȝ",
      "ǧƾ V",
      "L È",
      "ȓ ǖ",
      "ȧǘ Ǎ",
      "ȣ ǛǊ",
      "Ŋȯ ǖƲ",
      "C é",
      "õ Ȧ",
      "U ø",
      "Ú ȫ",
      "ë Ȝ",
      "ȨǗ Ƶ",
      "Ú Ȩ",
      "ǝ ǆ",
      "= ×",
      "Ú Ȫ",
      "è Ȯ",
      "ð ȯ",
      "í ȯ",
      "á ț",
      "è Ȝ",
      "ǚ Ư",
      "Ƞǖ ƻ",
      "ȣ ǘƾ",
      "Ŋȯ ǖǊ",
      "ŉ ȫǖ",
      "@ ×",
      "Ƞ ǘƲ",
      "ŉ Ȩǖ",
      "ǡ Ƶ",
      "ȯǗ ǁ",
      "ȭǗ Ǆ",
      "Ȧ ǘƾ",
      "ȞǗ Ƹ",
      "Őȣ ǖƦ",
      "ŐȠ ǖƲ",
      "E Æ",
      "ǚ Ǉ",
      "ȝ ǖǄ",
      "ȨǗ ǁ",
      "Ŋȫ ǖƦ",
      "Ø Ȫ",
      "ǚ ƻ",
      "ȜǗ Ʋ",
      "B Ô",
      "Ȝ ǖǐ",
      "ŐȦ ǖƦ",
      "C ã",
      "Ǜ ǉ",
      "G Ñ",
      "b ò",
      "A å",
      "Ƞ ǘǊ",
      "ȯǖ Ư",
      "G Ã",
      "b é",
      "ŐȦ ǖƲ",
      "Ú ȝ",
      "Ü ȟ",
      "B à",
      "7 ô",
      "U ê",
      "Ȧ ǛǊ",
      "ȩ ǖƦ",
      "ȥ ǖƬ",
      "ǡ Ǉ",
      "î Ȟ",
      "Ȧǘ Ư",
      "ŐȣǗ Ʋ",
      "ȮǗ ƾ",
      "ì Ȩ",
      "ȣǘ Ư",
      "ȟ ǖƸ",
      "b ð",
      "Ȝ ǖǊ",
      "B ã",
      "n ð",
      "ò Ȣ",
      "ȯǘ Ʃ",
      "ȯǗ Ƶ",
      "Û ȧ",
      "ï ȥ",
      "ū ț",
      "Ö ȡ",
      "Ǫ ǐ",
      "ì ȭ",
      "ŉȬ ǖƦ",
      "Ő ȗ",
      "Ȝ ǖƲ",
      "ŐȠ ǖƾ",
      "ȣ ǛƲ",
      "ȫ ǘǐ",
      "ŐȠ ǖƸ",
      "ó Ƞ",
      "Ŝ șǖ",
      "ŉȭ ǖƦ",
      "ŐȣǗ Ǌ",
      "ó Ȧ",
      "Ȫ ǖƾ",
      "ȣǗ Ǔ",
      "U ß",
      "à Ȝ",
      "ȝ ǖƬ",
      "ǝ Ư",
      "Ø ȧ",
      "ǧ Ʊ",
      "Û ȩ",
      "f é",
      "î Ȯ",
      "ȜǗ Ǌ",
      "ȝ ǖǐ",
      "Þ ȧ",
      "Ȫ ǖƦ",
      "Ǥ ǃ",
      "Ǣ ƺ",
      "Ŝ ȡǖ",
      "ã Ȝ",
      "Ǜ Ʊ",
      "Ƞǖ Ǉ",
      "Ƞǘ Ǉ",
      "ȧ ǖƬ",
      "Ȩ ǤƦ",
      "B è",
      "ȮǗ Ʀ",
      "à Ȭ",
      "ȣ ǘƸ",
      "Þ ȩ",
      "Ȧǘ ƻ",
      "ȞǗ Ǌ",
      "Ý Ȯ",
      "Ȝ ǖǄ",
      "A Ï",
      "Ó Ȧ",
      "í Ȟ",
      "Ȥ ǖƬ",
      "ŐȠ ǖƬ",
      "Ȑ Ǘ",
      "ŐȦ ǖǊ",
      "ê ȭ",
      "ǡ ƫ",
      "Ŋ ȨǖƦ",
      "ȞǗ Ʋ",
      "7 ð",
      "Ȝ ǖƾ",
      "ȧǘ Ʃ",
      "Ǣ Ʈ",
      "Û ȝ",
      "Ö Ȣ",
      "Ǜ Ǖ",
      "ȫ ǘƦ",
      "ì ȟ",
      "ȫǘ Ǉ",
      "ȨǗ Ǎ",
      "L É",
      "Ǣ Ʊ",
      "Ŭ Ț",
      "ȯǚ Ƭ",
      "ŐȠ ǖǊ",
      "ò ȧ",
      "ǣ Ƭ",
      "ǥ ǁ",
      "U è",
      "H Õ",
      "ȣǘ ƻ",
      "Ñ ȣ",
      "L Î",
      "Ȧ ǖƬ",
      "ǝ Ǉ",
      "ȝ ǖǊ",
      "ȯǗ Ǎ",
      "Ǜ Ʒ",
      "ǩ Ǌ",
      "Ō Ȩǖ",
      "K Í",
      "ŐȠ ǖǄ",
      "Ŕ Ȟ",
      "b õ",
      "ȨǛ Ǉ",
      "ã ȯ",
      "Őȡ ǖƲ",
      "ȝ ǖƾ",
      "ȦǗ ƻ",
      "Ǟ Ƶ",
      "Ȩǚ Ƭ",
      "ŐȠ ǖƦ",
      "ò ȡ",
      "Ǣ Ư",
      "ŉ Ƞ",
      "Û ȫ",
      "Ø Ȩ",
      "ò Ȩ",
      "ȨǛ ƻ",
      "& ÷",
      "f ç",
      "ȦǗ Ǉ",
      "ȡǗ Ư",
      "U á",
      "ŐȨǗ ƾ",
      "G È",
      "Ü Ȟ",
      "ȬǗ Ƭ",
      "ŐȤ ǖƾ",
      "ǡ Ʃ",
      "f æ",
      "ȝ ǖƲ",
      "ȞǗ ƾ",
      "Ŋ ȯǗƦ",
      "U å",
      "ȣǖ ƻ",
      "K É",
      "ȯǖ Ǉ",
      "ò ȭ",
      "ȠǗ ƻ",
      "ȯǗ Ʊ",
      "Ø Ȟ",
      "í Ȯ",
      "ȧǗ Ư",
      "ǫǕ V",
      "ǚ Ǔ",
      "7 ù",
      "Û Ȫ",
      "Ŋ ȯǘƾ",
      "ǜ Ǉ",
      "à ȭ",
      "ȨǛ Ư",
      "ȞǗ Ƭ",
      "Ö Ȥ",
      "é ț",
      "ȠǗ Ǉ",
      "Ȝ ǖƬ",
      "E Â",
      "Ȩǖ ƻ",
      "ȫ ǘǄ",
      "ȞǗ ǐ",
      "ȣǖ Ǉ",
      "ȭǗ Ƭ",
      "G Ä",
      "ï ȩ",
      "ǡ ƻ",
      "f ë",
      "ǚ ƺ",
      "K Ã",
      "H Ô",
      "ǫƦ Y",
      "ǩ ǐ",
      "n ô",
      "ǝ ǎ",
      "ï Ȥ",
      "ǜ Ǎ",
      "ǡ ǒ",
      "Ý Ț",
      "ȫ ǖǐ",
      "Ù Ƞ",
      "C è",
      "ò Ȭ",
      "ȥǗ Ư",
      "Þ ȝ",
      "ŉ ȨǖƦ",
      "ȟ ǖǄ",
      "ȞǗ Ǆ",
      "ß Ț",
      "ǧƾ U",
      "ï Ȫ",
      "ǜ Ư",
      "Ō ȨǖƲ",
      "f ä",
      "ñ Ƞ",
      "ȫ ǖƸ",
      "ȣ Ǜƾ",
      "ŐȨǗ Ʀ",
      "Ō ȨǖǊ",
      "b ó",
      "ȝǗ Ƹ",
      "Ñ Ȧ",
      "Őȡ ǖƾ",
      "Ō ȫǖƲ",
      "Ŝ Șǖ",
      "ȓ Ǘ",
      "Ȧǘ Ǉ",
      "n î",
      "B í",
      "F Ø",
      "ê Ȟ",
      "Ǜ ƽ",
      "Ǩ ƺ",
      "ȝǗ Ʋ",
      "ä Ț",
      "ǚ Ǎ",
      "Ō ȫǖǊ",
      "Ȝ ǖƦ",
      "ŐȢ ǖƾ",
      "Ŋȫ ǖƾ",
      "ȣ ǘǐ",
      "ȫǘ Ǔ",
      "å ȯ",
      "ȣ ǘƦ",
      "ȜǗ ƾ",
      "ŐȤ ǖƲ",
      "Þ Ȫ",
      "Õ Ƞ",
      "B ç",
      "Ǖ W",
      "ȩ ǛǊ",
      "ï ȫ",
      "Ő Ȭǖ",
      "ŉ ȯǖƲ",
      "Őȥ ǖƾ",
      "L Ñ",
      "ȥ ǘǊ",
      "ǫ Ǔ",
      "A è",
      "ȣ Ǜǐ",
      "G Æ",
      "ǡ Ʈ",
      "C Í",
      "Őȡ ǖƸ",
      "ǝ Ʈ",
      "Őȥ ǖǊ",
      "ǧ Ƨ",
      "ȭ ǛǊ",
      "Ó ȥ",
      "Őȥ ǖƲ",
      "ǚ ǒ",
      "Ő ȗǖ",
      "ǝ ƺ",
      "b ñ",
      "ŉ ȦǗƦ",
      "7 ú",
      "æ Ț",
      "Őȡ ǖǊ",
      "Ǣ Ʒ",
      "Ú Ȝ",
      "ȟǗ Ư",
      "Ȧ ǛƲ",
      "ȮǗ Ƹ",
      "Őȥ ǖƦ",
      "ȢǗ Ư",
      "ū Ȝǖ",
      "Ǟ ǁ",
      "å Ȝ",
      "ǚ ǆ",
      "ȟ ǖǐ",
      "ȥ ǘƲ",
      "Ȟ ǖǊ",
      "ȯǙ ƺ",
      "ȯǗ ǉ",
      "ȡ ǘƸ",
      "L Ï",
      "Ŋ Ȩǖ",
      "B Ð",
      "ŐȡǗ Ʋ",
      "Ȟ ǖƲ",
      "ŉ ȯǖǊ",
      "G Ë",
      "ū Țǖ",
      "ð Ȯ",
      "Ȟ ǖƾ",
      "ȯǖ ƻ",
      "â Ț",
      "ȣǗ Ƶ",
      "ȯ ǢƦ",
      "ȯǡ Ƭ",
      "ǡ Ư",
      "Ȗ ǘ",
      "Ó Ȣ",
      "U Ý",
      "ȩ ǘǊ",
      "ŉ ȯǗƦ",
      "Ǣ ƫ",
      "ȣ ǛƸ",
      "Ȧ ǘƸ",
      "Ȫ ǛǊ",
      "ȣ ǘǄ",
      "Ǜ ǃ",
      "Ȧǖ ƻ",
      "Ŋȭ ǖƦ",
      "ȝ ǖƦ",
      "ȟ ǖƬ",
      "ŐȢ ǖƦ",
      "Ŭ Ƞǖ",
      "Û Ȩ",
      "Ƞ ǘƸ",
      "G Ï",
      "Ȧ Ǜǐ",
      "Ø ȝ",
      "ŉȭ ǖƾ",
      "ŐȢ ǖƲ",
      "Ő ȯǗƲ",
      "Őȧ ǖƲ",
      "ȡ ǘǊ",
      "ȜǗ Ƹ",
      "Ȟ ǖƸ",
      "ȩ ǘƲ",
      "Ō ȯǗǊ",
      "Ŏ ȫǖƲ",
      "ȡǖ ƻ",
      "ǝ Ʒ",
      "ȩ ǖǐ",
      "Ǟ ƻ",
      "ȣǘ Ǉ",
      "Ǚ Ʊ",
      "ç ț",
      "ã Ȯ",
      "Ȭ ǘǊ",
      "ŐȠ ǖǐ",
      "ȩ ǖƸ",
      "n ë",
      "Ü ȧ",
      "ȥ ǘƾ",
      "Ȧ ǘƦ",
      "ȧǗ ƻ",
      "ȡ ǘƲ",
      "Ŝ ȗǖ",
      "ȤǗ Ư",
      "Ȭ ǘƲ",
      "ǝ Ǐ",
      "ȝǗ Ǆ",
      "ǧ ǃ",
      "ǜ Ƶ",
      "ȝǗ ƾ",
      "ǝ ǒ",
      "ȯǗ Ʃ",
      "7 î",
      "Ǚ ǉ",
      "ȯ ǤƦ",
      "ȣǗ ǁ",
      "ȨǗ Ʃ",
      "ŉ Ȩǖƾ",
      "ǧ ƿ",
      "Þ Ȝ",
      "ȥǘ Ư",
      "ǫ Ǌ",
      "Ő ȯǗǊ",
      "b í",
      "ȨǛ Ǔ",
      "Őȧ ǖǊ",
      "ŉȬ ǖƾ",
      "ū Ș",
      "ŉ ȩǖ",
      "Ȫ ǘǊ",
      "ǚ ǁ",
      "ȝǗ Ƭ",
      "ŐȤ ǖǊ",
      "ǝ Ƶ",
      "7 ü",
      "Ñ ȥ",
      "Ö ȟ",
      "n ñ",
      "Ŋ Ȩǖƾ",
      "ï Ȣ",
      "ó ȥ",
      "ǝ ǃ",
      "Ȧ Ǜƾ",
      "Ȭ ǛǊ",
      "ǝ ǁ",
      "ŐȤ ǖƦ",
      "ŐȦǗ Ǌ",
      "Ŋ ȯǗƾ",
      "ȭ Ǜƾ",
      "Ÿ Ț",
      "ŐȦǗ Ʋ",
      "Û Ȝ",
      "Þ ȫ",
      "ȣǗ ƺ",
      "ǚ Ƶ",
      "å Ȯ",
      "Ŏ ȫǖǊ",
      "ǚ Ʈ",
      "ŉȪ ǖƦ",
      "Þ Ȩ",
      "Őȟ ǖƸ",
      "Ǣ ƻ",
      "ǜ ƫ",
      "ȭ ǖƦ",
      "Ȥ ǘǊ",
      "Őȧ ǖƦ",
      "ȝǗ Ǌ",
      "Ƞǘ Ǔ",
      "ǔ V",
      "Ƞ ǘƾ",
      "õ ȥ",
      "ȯǛ ƻ",
      "ǭ Ƹ",
      "Ȟ ǖǄ",
      "Ǯ Ʋ",
      "ƽ U",
      "ȯǖ ǉ",
      "ë ț",
      "Ƞǘ ǁ",
      "Ŝ Ȣǖ",
      "Őȡ ǖƦ",
      "ǧƦ W",
      "H Ö",
      "Ŝ ȗ",
      "ȯǙ ǒ",
      "ȩ ǛƲ",
      "Őȧ ǖƾ",
      "ū țǖ",
      "ȝǗ ǐ",
      "õ ȣ",
      "ȧ ǫƦ",
      "ȫ ǖǄ",
      "ȭ ǛƲ",
      "ț ǖǄ",
      "Ȣ ǘƲ",
      "ŐȡǗ Ƹ",
      "Ʀ Ȱ",
      "Ǚ Ǖ",
      "í ȝ",
      "ȡ ǘƾ",
      "Ǫ ƾ",
      "K Ë",
      "C ç",
      "K Ô",
      "Ȫ ǘƲ",
      "à ț",
      "ȫ ǘƬ",
      "ȭ ǘǊ",
      "Őȣ ǖƸ",
      "Ȧ ǘǐ",
      "K Æ",
      "Ȫ ǖƸ",
      "ǧ Ƽ",
      "ȩǗ Ư",
      "Ƞ ǘǐ",
      "Ȭ ǖƦ",
      "L Í",
      "Ȥ ǘƲ",
      "ǟ Ʒ",
      "ì ȯ",
      "Ƞ Ǜǐ",
      "ȭ Ǜǐ",
      "C å",
      "ì Ȯ",
      "L Ã",
      "Ƞǘ Ƶ",
      "Ȩǖ Ǉ",
      "Őȡ ǖǄ",
      "L Æ",
      "Ȧǖ Ǉ",
      "Ȫ Ǜƾ",
      "ǟ ǃ",
      "ȯǛ Ǉ",
      "Ȧǘ Ǔ",
      "ŐȪ ǖƲ",
      "Őȡ ǖƬ",
      "ū ș",
      "ǣ Ʋ",
      "ȣǘ Ǔ",
      "ȜǗ Ǆ",
      "n í",
      "ȜǗ Ʀ",
      "ȧǖ Ʊ",
      "Ȫ ǖǐ",
      "Ő ȭǖ",
      "ǜ ǁ",
      "ȧǗ Ǉ",
      "ȧǖ ǉ",
      "ŊȪ ǖƦ",
      "ȣ ǘƬ",
      "ŐȡǗ Ƭ",
      "Ǥ Ʒ",
      "Őȟ ǖƬ",
      "ǜ ǆ",
      "ǫ ǒ",
      "Ǡ Ʒ",
      "A Ð",
      "G Ó",
      "Ƞ ǛǊ",
      "Ȩ ǖƯ",
      "ȯǗ ƽ",
      "ȡǗ ƻ",
      "Ƿ Ʀ",
      "ï ȧ",
      "Ȧ ǘǄ",
      "ȭ ǘƲ",
      "ȭ ǘƾ",
      "b ç",
      "Ȟ ǖǐ",
      "Ȫ ǛƲ",
      "ț ǖƸ",
      "Ȟ ǖƦ",
      "ȡ ǘǐ",
      "ȥǘ ƻ",
      "Ü ȝ",
      "ȨǛ Ǎ",
      "ȩ Ǜƾ",
      "J Ç",
      "î ȝ",
      "ŐȢ ǖǊ",
      "Ő ȯǗƦ",
      "ȣ ǛǄ",
      "Ō ȯǗƲ",
      "B ð",
      "ǡ Ƨ",
      "ǫ ƫ",
      "ȯ ǝƦ",
      "Z æ",
      "Ō ȚǗ",
      "B Ï",
      "Ȭ Ǜƾ",
      "õ Ȣ",
      "ȯǖ Ʊ",
      "Ŋ ȫǖ",
      "Ȟ ǖƬ",
      "ǫǕ W",
      "Ó ȡ",
      "ȟǗ ƻ",
      "Ȫ ǖǄ",
      "Ó Ȥ",
      "Ǩ ƻ",
      "Őȟ ǖǄ",
      "Ȭ ǛƲ",
      "ȫ ǡƦ",
      "ŐȡǗ ǐ",
      "ȥǗ Ǉ",
      "ǣ Ǖ",
      "Ñ ȡ",
      "ȣǗ Ǎ",
      "b æ",
      "Ŝ ȣǖ",
      "C í",
      "ŉ Ȭǖ",
      "ȡǗ Ǉ",
      "Ő ȯǗƾ",
      "ó ȣ",
      "Ȓ ǖ",
      "ț ǖƬ",
      "ê Ȯ",
      "ǯƦ V",
      "á Ț",
      "Ƞ ǛƸ",
      "Ŋ Ȣ",
      "Ȧǖ ǉ",
      "7 ñ",
      "ŐȣǗ ƾ",
      "ȫǗ Ư",
      "ŉ ȯǗƾ",
      "Őȣ ǖƬ",
      "Ȣǘ ƻ",
      "ŐȡǗ Ǆ",
      "ƦȰ Ʀ",
      "ȩ ǘƾ",
      "ȟǖ ƻ",
      "ó Ȥ",
      "ŐȪ ǖǊ",
      "ȡǖ Ǉ",
      "ȜǗ Ƭ",
      "Ñ Ȥ",
      "ê ȯ",
      "Ȣǘ Ư",
      "ȣǗ ǒ",
      "Ȧǖ Ʊ",
      "ǯ Ƭ",
      "ŊȬ ǖƦ",
      "ò ȟ",
      "Ȧ ǛƸ",
      "0 î",
      "v é",
      "ò ȯ",
      "ȯǛ Ư",
      "0 ë",
      "ä Ȑ",
      "ȟǖ Ǉ",
      "f â",
      "õ Ȥ",
      "Ō ȯǘǊ",
      "ȭ ǖƾ",
      "J Ê",
      "ï ȡ",
      "ȥǗ ƻ",
      "H À",
      "ȯǗ Ǖ",
      "ȥ ǛǊ",
      "ȜǗ ǐ",
      "ŉȪ ǖƾ",
      "Z é",
      "Ü ȩ",
      "ǡ ƿ",
      "Õ ȣ",
      "ǯƦ W",
      "0 é",
      "ȪǗ Ư",
      "ȭ ǛƦ",
      "g â",
      "Ȫ Ǜǐ",
      "ȮǗ ǐ",
      "ǡ ǋ",
      "Ȫ ǘƾ",
      "L Ë",
      "Ú ț",
      "ǧ ǉ",
      "ȨǙ ǒ",
      "ȦǗ Ǔ",
      "Ȭ ǖƾ",
      "Ƞǖ Ƶ",
      "U à",
      "ȟǗ Ǉ",
      "U ã",
      "ð Ȟ",
      "ȫǘ Ƶ",
      "ȯǘ ǉ",
      "Ȥǖ ƻ",
      "Ȣǖ ƻ",
      "7 ö",
      "ȩ ǖǄ",
      "ǟ Ǐ",
      "ȡǗ ƺ",
      "ț ǖƲ",
      "U þ",
      "Ȥǘ Ư",
      "ǩ Ư",
      "Ƞ ǛƲ",
      "ȫǘ ǁ",
      "ȢǗ Ǉ",
      "Ǟ Ʒ",
      "Őȣ ǖǄ",
      "L Â",
      "ȥ Ǜǐ",
      "ï Ȩ",
      "Ƞǖ ǁ",
      "Ö ȩ",
      "ū ȗ",
      "ŐȞ ǖƬ",
      "ǜ ƻ",
      "ȯǛ Ǎ",
      "ȭ ǛƸ",
      "ȯǘ Ʊ",
      "ȥǖ ƻ",
      "ê ȝ",
      "Ŭ Ȝǖ",
      "ŐȜ ǖƸ",
      "ȯǖ Ǎ",
      "ȡǘ Ư",
      "Ǚ ƽ",
      "ŉȩ ǖƦ",
      "Ñ Ȣ",
      "ȣ ǛƦ",
      "ȧǖ Ǉ",
      "Őȡ ǖǐ",
      "Ȭ Ǜǐ",
      "B î",
      "b ì",
      "Ȣǖ Ǉ",
      "ȫǗ ƻ",
      "Ö ȫ",
      "ȨǛ Ƶ",
      "ȯǖ Ǔ",
      "ȨǛ ǁ",
      "ȩǗ ƻ",
      "Ǡ Ǐ",
      "G Í",
      "ȧǖ ƻ",
      "B Ò",
      "Ö ȧ",
      "Ø Ȝ",
      "Ȭ ǘƾ",
      "ǝ ƻ",
      "ȯǖ ǁ",
      "ȮǗ Ǆ",
      "Ǥ Ʊ",
      "B å",
      "Ŋ Ȫǖ",
      "ŉȮ ǖƦ",
      "ȡǗ ǒ",
      "U û",
      "Ȯ ǖǊ",
      "ȯǗ Ʒ",
      "ǟ Ǎ",
      "ȯǖ Ƶ",
      "ȦǗ Ƶ",
      "n é",
      "ì Ȟ",
      "ȩǘ Ư",
      "Ȥ ǘƾ",
      "ƽ V",
      "b ä",
      "Ŋȯ ǖƸ",
      "Ú ȯ",
      "ǔ W",
      "Ȣ ǘǊ",
      "A í",
      "ū Șǖ",
      "ŐȪ ǖƾ",
      "Ü Ȩ",
      "ŐȪ ǖƦ",
      "Ú Ȯ",
      "Ü ȫ",
      "Õ ȥ",
      "Ö Ȩ",
      "g ä",
      "à ȯ",
      "ȯǛ Ǔ",
      "ŐȞ ǖƸ",
      "Ǟ Ǐ",
      "Ƞ ǘƬ",
      "Ȥǖ Ǉ",
      "ȭ ǘƸ",
      "æ Ȑ",
      "ŐȡǗ Ǌ",
      "ȥǖ Ʊ",
      "Ō ȯǘƲ",
      "î Ȝ",
      "v æ",
      "ñ Ȧ",
      "Ǟ ǃ",
      "ȡǘ ƻ",
      "ȭ ǛǄ",
      "Ƞ Ǜƾ",
      "Ƞ ǘǄ",
      "ȨǙ ƺ",
      "ȥǘ Ǉ",
      "Ŋ ȯǛƦ",
      "Ǫ Ʃ",
      "ț ǖǐ",
      "ȩ Ǜǐ",
      "ȫ ǖƬ",
      "E Ä",
      "Ǣ Ʃ",
      "Y é",
      "J Ì",
      "Ȩǖ ǉ",
      "7 ë",
      "ȢǗ ƻ",
      "ȦǗ ƺ",
      "ț ǖƾ",
      "ó Ȣ",
      "n ú",
      "Ǩ Ǌ",
      "Ǜ Ư",
      "ȠǗ ǁ",
      "ȠǗ Ǔ",
      "ŉ ȭǖ",
      "ǡ ƹ",
      "v ë",
      "ŊȪ ǖƾ",
      "ȯǙ ǆ",
      "ȣǘ Ƶ",
      "Ȭ ǛƦ",
      "Ŋȭ ǖƾ",
      "ȯǗ ƺ",
      "è ț",
      "ȩ ǘƸ",
      "ȥǖ ǉ",
      "Ƞǖ Ǔ",
      "ȩǖ ǉ",
      "ū ȝǖ",
      "Őȟ ǘ",
      "Ŭ ȝǖ",
      "ȦǗ ǁ",
      "ȫǘ Ǎ",
      "ȪǗ ƻ",
      "ȤǗ ƻ",
      "ŐȞ ǖǄ",
      "ȨǗ Ʊ",
      "Ȩǖ Ʊ",
      "c ë",
      "í Ȝ",
      "ǧ ƹ",
      "Y æ",
      "Ƞǖ ǉ",
      "õ ȫ",
      "ã ț",
      "Ǫ ƫ",
      "Ƞǘ Ǎ",
      "Ȧǘ Ƶ",
      "ŐȢ ǖƸ",
      "ū șǖ",
      "Ȯ ǖƲ",
      "Ö Ȫ",
      "ȨǗ ƺ",
      "ŐȤ ǖƸ",
      "ǧ ƫ",
      "ŌȬ ǖƲ",
      "n ù",
      "ȥǖ Ǉ",
      "ǫ Ǐ",
      "é Ț",
      "Z ë",
      "Ǣ ǅ",
      "ŐȚ ǖƸ",
      "Ƞǖ Ʊ",
      "Őȟ ǖƾ",
      "ȣǘ Ǎ",
      "E Ø",
      "Z ä",
      "ǧƾ W",
      "Ù ȡ",
      "Y ë",
      "ȥ ǘƸ",
      "Ŋ ȨǗƦ",
      "Ő ȘǗ",
      "b ô",
      "Ǜ ƫ",
      "ǟ ƺ",
      "Ȫǘ Ư",
      "Ǡ ǃ",
      "Ŭ Țǖ",
      "Őȫ ǖƲ",
      "Ú Ȭ",
      "ȤǗ Ǉ",
      "ȥ ǘǐ",
      "ȩǖ Ʊ",
      "ŐȜ ǖƬ",
      "Ü Ȝ",
      "ȨǗ ǉ",
      "Őȟ ǖƲ",
      "Ŏ ȨǖƲ",
      "R ë",
      "õ Ȫ",
      "ȩ ǛƸ",
      "Őȫ ǖǊ",
      "ȥ Ǜƾ",
      "Ü Ȫ",
      "Ȧǘ ǁ",
      "Û ț",
      "ȣǘ ǁ",
      "Ő ȗǗ",
      "7 ï",
      "I Ç",
      "ȭ ǘƦ",
      "Ȧ ǛǄ",
      "ǥ Ʃ",
      "Ŏ ȨǖǊ",
      "ȦǗ Ʒ",
      "7 ø",
      "ȯǛ ǉ",
      "Őȩ ǖƲ",
      "A î",
      "Y ä",
      "v â",
      "ȯ ǝǊ",
      "ǡ ǎ",
      "ǥ Ʊ",
      "ȞǗ Ʀ",
      "g æ",
      "Ő ȨǘǊ",
      "ŐȨǗ Ƹ",
      "ȫǖ ǉ",
      "C ð",
      "K Ø",
      "ȥ ǛƲ",
      "ȨǛ ǉ",
      "ñ ȣ",
      "Ǜ ƻ",
      "ȩ ǘǐ",
      "ǚ Ǒ",
      "Ǥ Ǉ",
      "ȠǗ Ƶ",
      "Őȩ ǖƦ",
      "Ȫǘ ƻ",
      "ȦǗ Ʊ",
      "Őȫ ǖƦ",
      "ȯǙ Ʈ",
      "f å",
      "Ö Ȟ",
      "Ȩǘ ǉ",
      "Ù Ȣ",
      "ȣǖ Ʊ",
      "Őȣ ǖǐ",
      "b ï",
      "A Ò",
      "ñ Ȥ",
      "Ő Ȗ",
      "Őȝ ǖƸ",
      "ȩǘ ƻ",
      "õ ȧ",
      "Ǜ Ǉ",
      "ǜ ƺ",
      "Ȫǖ Ʊ",
      "Þ ț",
      "ȡ ǘƦ",
      "Ȩǘ Ʊ",
      "ǥ ǃ",
      "Ȓ Ǘ",
      "ȨǙ ǆ",
      "ȧǖ ƽ",
      "Ȥǘ ƻ",
      "ǧ Ǔ",
      "Ú ȭ",
      "ȯǘ Ǖ",
      "ȣǖ ǁ",
      "ȦǗ Ǎ",
      "Ȥǖ ǉ",
      "Ƞǖ Ʒ",
      "Ȧ ǛƦ",
      "ȩ ǛǄ",
      "å ț",
      "ì ȝ",
      "Őȟ ǖǐ",
      "ȩǗ Ǉ",
      "Ǟ Ʃ",
      "ȦǗ ǉ",
      "Ǣ ǁ",
      "ȯǛ Ƶ",
      "Ó ȧ",
      "Ƞ ǘƦ",
      "ȩ ǖƬ",
      "ó Ȫ",
      "Ő ȨǘƲ",
      "ǫ Ƹ",
      "ȯ ǝƲ",
      "ȣǖ Ǔ",
      "Ȣǘ Ǉ",
      "Ȧǘ Ǎ",
      "n ö",
      "Ŝ țǗ",
      "ȟǘ Ư",
      "ŐȜ ǖǄ",
      "ó ȫ",
      "Ȥ ǘƸ",
      "Ǩ Ʊ",
      "ò Ȯ",
      "ŐȚ ǖƬ",
      "ț ǖǊ",
      "Őȫ ǖƾ",
      "Ǣ ǒ",
      "ȨǗ ƽ",
      "ŌȬ ǖǊ",
      "K Õ",
      "Ó ȟ",
      "ȣǗ Ʃ",
      "ȯǘ ƽ",
      "ǝ Ʃ",
      "% §",
      "7 í",
      "Ȥǖ Ʊ",
      "n ï",
      "Ƞǖ ƽ",
      "ǧ ǒ",
      "ȨǛ Ǐ",
      "ŐȢ ǖƬ",
      "ŐȨ ǖƸ",
      "ð ȝ",
      "Ȭ ǛƸ",
      "Ȭ ǘƦ",
      "ū ȗǖ",
      "Ȫ ǛƦ",
      "> ÷",
      "Ō ȪǖƲ",
      "ŐȚ ǖǄ",
      "Ȣ ǘƸ",
      "Ƞǖ Ǖ",
      "ȩ ǛƦ",
      "ǡ Ǔ",
      "Ȩ ǝƦ",
      "ŐȤ ǖƬ",
      "Őȩ ǖƾ",
      "Ǥ ǉ",
      "Ȫǖ ǉ",
      "à Ȯ",
      "ȣ ǛƬ",
      "ǡ ǅ",
      "ȡ ǘǄ",
      "ǳ Ʀ",
      "Ŋ ȨǘƦ",
      "ǣ ǐ",
      "ȥ ǘƦ",
      "B ê",
      "ǜ ǎ",
      "Ƞ ǛǄ",
      "ȭ ǡƦ",
      "ȨǗ Ʒ",
      "Ƞǖ Ǎ",
      "I Ê",
      "Ȣ ǘƾ",
      "ǜ Ʈ",
      "ȨǗ Ʈ",
      "Őȝ ǖƬ",
      "Ȫ ǛƸ",
      "Ȧǖ ƽ",
      "G Ð",
      "K Ð",
      "ȥ ǛƸ",
      "Ō ȪǖǊ",
      "Y ç",
      "æ ș",
      "ȫǗ Ǉ",
      "ŎȬ ǖǊ",
      "Ǡ Ǎ",
      "ȩ ǘƦ",
      "ŐȦ ǖƸ",
      "ŎȬ ǖƲ",
      "B ò",
      "A Ì",
      "ǜ Ʃ",
      "ȨǗ ǒ",
      "Ȫ ǖƬ",
      "Ǥ ǁ",
      "Ȥ ǛǊ",
      "ǚ ƹ",
      "ȧ ǙƲ",
      "ŐȢ ǖǄ",
      "ȣǗ Ʈ",
      "ǟ ǆ",
      "0 í",
      "ǜ ǒ",
      "ǝ ƶ",
      "ȣ ǡǊ",
      "ȭ ǘǐ",
      "f è",
      "f î",
      "U Ø",
      "U Ì",
      "Ȧǖ Ǖ",
      "ȟǘ ƻ",
      "v î",
      "ȣǗ Ʊ",
      "ǧ ǀ",
      "Ƞǘ Ʃ",
      "ȕ ǘ",
      "Ŏȭ ǖǊ",
      "Ȩǖ Ǔ",
      "õ ȡ",
      "Ȧǖ Ƶ",
      "ŐȞ ǖǐ",
      "ä ș",
      "Ő Ȗǖ",
      "ȣǖ Ƶ",
      "â ș",
      "ȨǗ ǆ",
      "Ȫǘ Ǉ",
      "v ç",
      "ñ ȥ",
      "Ǥ Ʃ",
      "Ȩ ǢƦ",
      "ó ȩ",
      "ȯǗ ǒ",
      "ȣ ǖƯ",
      "Ȣ ǛƲ",
      "Ƞǖ Ǐ",
      "ȧǗ Ƶ",
      "ȪǗ Ǉ",
      "ȯǗ Ǐ",
      "ȣǖ ǉ",
      "ȣǗ ǆ",
      "Őȟ ǖǊ",
      "Ŏȭ ǖƲ",
      "é Ȑ",
      "ȫ ǡƾ",
      "ŐȤ ǖǄ",
      "Ȫ ǘǐ",
      "Őȩ ǖǊ",
      "ȩǘ Ǉ",
      "ȯǛ ǁ",
      "ȯǗ Ʈ",
      "Ǩ ƽ",
      "Ȭ ǘƸ",
      "1 é",
      "Ŝ Ȗǖ",
      "Ȫ ǘƸ",
      "ȧǗ Ǔ",
      "ç Ț",
      "ȧ ǙǊ",
      "ǫ ƨ",
      "ï ȟ",
      "ê Ȝ",
      "v í",
      "ȡǘ Ǉ",
      "g é",
      "ß ș",
      "Ȩǖ ǁ",
      "I Ì",
      "Ǡ ǆ",
      "õ ȩ",
      "ȫǖ Ʊ",
      "0 ð",
      "Ö ȝ",
      "ū Ȟǖ",
      "Ȩǖ Ƶ",
      "ȭ ǖƸ",
      "g ç",
      "Ý ș",
      "Ő ȯǖƸ",
      "Ŋȯ ǖǄ",
      "Ǥ ƫ",
      "ȦǗ ƽ",
      "ȧǙ ƺ",
      "Õ Ȥ",
      "ŊȮ ǖƦ",
      "ȨǛ Ʒ",
      "ȧǙ Ƭ",
      "Ő Ȩǘƾ",
      "ȟǗ ǒ",
      "R ð",
      "ȠǗ ƺ",
      "Őȟ ǖƦ",
      "Ț ǖƲ",
      "ŐȦ ǖǄ",
      "Ù Ȥ",
      "Ǡ ƺ",
      "Ù ȣ",
      "ȧǖ Ǖ",
      "ȮǗ Ƭ",
      "7 þ",
      "Ȧǖ Ǔ",
      "f í",
      "ó ȡ",
      "b â",
      "ŐȣǗ Ʀ",
      "Ǣ Ƨ",
      "ȥǗ Ʊ",
      "H Ø",
      "b è",
      "ǝ ƫ",
      "Ȫ ǘƦ",
      "Ñ ȟ",
      "õ Ȩ",
      "ȧ Ǚƾ",
      "ȨǗ Ǐ",
      "Ù Ȧ",
      "Ǥ ƻ",
      "Ȣ ǘǐ",
      "ȬǗ Ư",
      "ȠǗ Ǎ",
      "Ƞǖ ǃ",
      "ȭ ǖǐ",
      "Ŭ Ș",
      "ȧǙ ǒ",
      "ȣǗ ƽ",
      "ǧ Ʈ",
      "ǧ ǔ",
      "Û Ȭ",
      "Ȧǖ ǁ",
      "Ōȭ ǖǊ",
      "c é",
      "ȠǗ Ʊ",
      "Z â",
      "Õ Ȧ",
      "Ő ȨǘƦ",
      "Ÿ ș",
      "ŐȜ ǖǐ",
      "Œ ȟ",
      "Ù ȥ",
      "A ê",
      "Õ Ȣ",
      "ð Ȝ",
      "ŉȩ ǖƾ",
      "H Á",
      "Ț ǖƸ",
      "ȣǖ Ǖ",
      "Ȩǖ Ǎ",
      "f ê",
      "Ŋ ȨǗƾ",
      "ǟ ǁ",
      "ŊȬ ǖƾ",
      "Z ç",
      "b ê",
      "J Å",
      "Ó ȩ",
      "ȣ ǡƦ",
      "ô Ƞ",
      "ȥǘ Ǔ",
      "ȧǙ ǆ",
      "Ó ȫ",
      "ǣ Ǌ",
      "ȨǛ Ʊ",
      "Ȥǖ Ǖ",
      "Ô Ƞ",
      "Ǜ Ǔ",
      "ȨǗ Ǖ",
      "R î",
      "ȡǖ ǁ",
      "B Ì",
      "ȨǛ Ǖ",
      "ū ȟǖ",
      "ȯǛ Ʊ",
      "Ȧ ǘƬ",
      "Ȫ ǛǄ",
      "ȠǗ Ʒ",
      "Þ Ȭ",
      "ǥ Ʒ",
      "Ȩ ǝǊ",
      "ŐȣǗ Ƹ",
      "Ù ȟ",
      "ȧǗ ǁ",
      "g ß",
      "Ȣǖ Ʊ",
      "Őȝ ǖǄ",
      "ŐȬǗ Ʋ",
      "n ø",
      "ŐȨ ǖǄ",
      "L Ä",
      "v ä",
      "ȯǗ ǆ",
      "Ǚ Ʒ",
      "Ǚ Ǐ",
      "Ōȭ ǖƲ",
      "U Û",
      "ǟ Ǉ",
      "Ŋ ȭǖ",
      "ȟǗ ƺ",
      "ȣǖ ƽ",
      "Ŋ ȯǙƦ",
      "ì Ȝ",
      "ȡǖ Ǔ",
      "Ȩǘ ƽ",
      "ȤǗ Ʊ",
      "K Ä",
      "ó ȧ",
      "ȭ ǘǄ",
      "Ȩǘ Ǖ",
      "Ȣǖ ǉ",
      "U ý",
      "ȯǛ Ǖ",
      "Ø ȯ",
      "Ŭ Ȟǖ",
      "Ŋȩ ǖƦ",
      "ȨǙ Ʈ",
      "Ŏ ȪǖǊ",
      "ŐȤ ǖǐ",
      "Ȭ ǖƸ",
      "ȧǗ ƺ",
      "ȤǗ ƽ",
      "ǡ Ƴ",
      "Ȥǘ Ǉ",
      "ȦǗ Ʈ",
      "Ñ ȧ",
      "Ȭ ǖǐ",
      "ȠǗ ǉ",
      "ȥ ǘǄ",
      "ȦǗ ǆ",
      "ȥ ǛǄ",
      "Ō ȨǘǊ",
      "â Ȑ",
      "ȣǗ ǉ",
      "Õ ȡ",
      "țǗ Ƹ",
      "ȥǖ ƽ",
      "ȥǖ ǁ",
      "ȣǗ Ʒ",
      "ȟǗ Ƶ",
      "ŐȚ ǖǐ",
      "Ȣ ǛǊ",
      "ȧǗ Ʊ",
      "U Ú",
      "ǜ ƹ",
      "Ŭ ȟǖ",
      "ȣǖ Ǎ",
      "I Å",
      "Ŝ ȖǗ",
      "ȤǗ Ʒ",
      "ó Ȩ",
      "ȨǛ ƽ",
      "ȧǗ ǉ",
      "ȝǗ Ʀ",
      "Ȭ ǛǄ",
      "ȬǗ ƻ",
      "Ȣǖ Ǖ",
      "ȩǖ Ǉ",
      "C ò",
      "ñ ȫ",
      "țǗ Ʋ",
      "Őȡ ǘ",
      "Ȧ ǙǊ",
      "ǜ ǅ",
      "ȞǗ Ư",
      "ȡǗ Ƶ",
      "Ǭ ǐ",
      "ŐȨ ǖǐ",
      "ȦǗ Ǐ",
      "ȯ ǝƾ",
      "ǡ ǂ",
      "Ȭǘ Ư",
      "Ȥ ǘǐ",
      "f ì",
      "ȡǖ ǉ",
      "ŐȦ ǖƬ",
      "Ȧǖ Ǎ",
      "ȫǘ Ʃ",
      "Őȥ ǖƸ",
      "Ŋ ȯǛƾ",
      "ȦǗ ǃ",
      "ȥǗ ǉ",
      "Ŏ ȪǖƲ",
      "ǫƦ X",
      "ȡ ǖƯ",
      "ȣǗ Ǖ",
      "ǧƦ Y",
      "ȥǗ Ʒ",
      "ǚ Ʃ",
      "ȧǗ Ʒ",
      "ȨǛ ǃ",
      "ȩǖ ƻ",
      "Ŋ ȨǛƦ",
      "ȦǗ ǒ",
      "ȥǖ Ǖ",
      "ǚ ǅ",
      "L Ó",
      "Ñ ȫ",
      "ñ Ȣ",
      "Y è",
      "ț ǖƦ",
      "ŉȮ ǖƾ",
      "Ț ǖǄ",
      "ȭ ǛƬ",
      "Ƞ ǛƦ",
      "ȥǗ Ƶ",
      "ȯǖ Ʃ",
      "ȧǖ ǁ",
      "ȣ ǙǊ",
      "B ï",
      "G À",
      "Ƞǖ ƺ",
      "ȯǘ Ʒ",
      "ǟ ƫ",
      "ǟ Ƶ",
      "1 ð",
      "ȟǗ Ǔ",
      "C ê",
      "Ú Ț",
      "1 ë",
      "ȧǗ ƽ",
      "C Ê",
      "ȡǗ Ǔ",
      "ȡǖ Ǖ",
      "Ȥǖ ƽ",
      "ȟǗ ǁ",
      "ȤǗ ǉ",
      "ȦǗ Ǖ",
      "ȩ ǘǄ",
      "ȡǖ Ʊ",
      "1 î",
      "Ȩǘ Ʒ",
      "ȭǘ Ư",
      "v ð",
      "ò Ȟ",
      "U Ö",
      "ȭǘ ƻ",
      "Ǭ Ǆ",
      "Ȩǖ ƽ",
      "K Â",
      "Ǣ Ǐ",
      "Ƞ ǛƬ",
      "ŉ ȣǗƸ",
      "ȧǖ Ǔ",
      "A ð",
      "ǡƦ U",
      "ř ȦǗƲ",
      "ǡ ƶ",
      "ȣ ǡƾ",
      "Ø ț",
      "ȯǗ ǃ",
      "ȯǛ Ǐ",
      "ǥ ƻ",
      "Ő ȯǘƲ",
      "ȣǖ Ʒ",
      "B ì",
      "ȠǗ ƽ",
      "R é",
      "Őț ǖƬ",
      "ȧǗ Ǎ",
      "ȭǗ Ư",
      "ŐȨǗ Ǆ",
      "ȭ ǖǄ",
      "Ü ț",
      "? ×",
      "ȩǗ Ǔ",
      "ȧǙ Ʈ",
      "Ǚ ƻ",
      "Ŋȯ ǖǐ",
      "ȯǘ Ǐ",
      "ȥ ǛƦ",
      "K â",
      "ŐȨ ǖƬ",
      "ǡ ǌ",
      "ȯ ǜǊ",
      "ȡ ǘƬ",
      "ȠǗ Ʈ",
      "ǥ ƺ",
      "Ƞǖ Ʃ",
      "Ț ǖǊ",
      "ȥǖ Ǔ",
      "ȥǗ Ǔ",
      "Ǚ Ư",
      "ȯǛ ƽ",
      "Ț ǖƬ",
      "Ǟ ǆ",
      "ȨǗ ǃ",
      "Ȣǖ ƽ",
      "ŐȞ ǖƾ",
      "Ȭ ǘǐ",
      "Ț ǖƾ",
      "ȣ ǙƲ",
      "c æ",
      "ȧǗ Ʈ",
      "Ǚ ǃ",
      "ȡǖ Ƶ",
      "6 ú",
      "ñ Ȫ",
      "Ő ȯǖǄ",
      "ȟǘ Ǉ",
      "ȧǖ Ƶ",
      "Őȭ ǖǊ",
      "ŉ ȯǘƦ",
      "ȭ ǡƾ",
      "C î",
      "ȡǗ ǁ",
      "ŐȞ ǖƲ",
      "Őȝ ǖǐ",
      "ȣǗ Ǐ",
      "Őȭ ǖƲ",
      "Ÿ Țǖ",
      "ǚ ƭ",
      "ȥǗ ƽ",
      "Y â",
      "Ǫ Ư",
      "ǟ Ư",
      "Ǫ Ƨ",
      "ȚǗ Ƹ",
      "ŐȢ ǖǐ",
      "ȠǗ ǆ",
      "T Ñ",
      "] ÷",
      "6 õ",
      "T Ö",
      "Ő ȕ",
      "Ȥ ǛƲ",
      "ǧ Ǐ",
      "Ƞǖ ƫ",
      "ř ȦǗǊ",
      "ë Ȑ",
      "Ȣ Ǜǐ",
      "ȩǘ Ǔ",
      "Ǫ Ʈ",
      "ȟǗ Ǎ",
      "țǗ ƾ",
      "ȥǗ ǁ",
      "ȧǖ Ʒ",
      "c î",
      "ȯ ǟƦ",
      "U Î",
      "Ǜ Ƶ",
      "ȠǗ Ǖ",
      "Őȧ ǖƸ",
      "Ǭ ƾ",
      "Ǩ Ǆ",
      "ȥ ǘƬ",
      "ǧ Ư",
      "ǜ Ǒ",
      "Ȩǘ ƺ",
      "ȡǖ ƽ",
      "Ó Ȩ",
      "ë Ț",
      "Ȧ ǡƾ",
      "Ȣ Ǜƾ",
      "Ȧǖ Ʒ",
      "Őț ǖƸ",
      "I Â",
      "Ō ȦǖǊ",
      "ȥǖ Ƶ",
      "ç Ȑ",
      "Ȟǖ ƻ",
      "ǡ ǈ",
      "ã Ț",
      "Ō ȩǖƲ",
      "ȡǘ Ƶ",
      "A ì",
      "c ä",
      "g å",
      "Ŋ ȯǙƾ",
      "ó ȟ",
      "ǡ Ǒ",
      "Z è",
      "Ŋ Ȭǖ",
      "Ŝ Ȗ",
      "Őȥ ǖǄ",
      "Ȧ ǙƲ",
      "ȦǗ Ʃ",
      "ȩǗ ǉ",
      "n ü",
      "Ō ȨǘƲ",
      "Ǣ Ǔ",
      "Ȝǖ ƻ",
      "Ő ȯǘǊ",
      "ȥǖ Ʒ",
      "Ǜ Ǎ",
      "ǜ Ǔ",
      "ǯƦ U",
      "ȤǗ ǁ",
      "Ŋ Ȩǘƾ",
      "ȩǗ Ƶ",
      "Ŋȯ ǡƦ",
      "ȦǗ ƫ",
      "ȯ ǞƦ",
      "ȯ ǜƲ",
      "Ȧǘ Ʃ",
      "ȯǖ Ǖ",
      "ŐȨǗ ǐ",
      "ŐȣǗ Ƭ",
      "à Ț",
      "K Ò",
      "Ï Ƞ",
      "Ȧ ǡǊ",
      "f á",
      "Û Ț",
      "6 ô",
      "ŐȦ ǖǐ",
      "Ǯ Ǖ",
      "ȣǘ Ʃ",
      "Ǟ Ʈ",
      "țǗ ǐ",
      "ŊȮ ǖƾ",
      "c ð",
      "Ō Ȭǖ",
      "Ǟ Ǔ",
      "g Ý",
      "ŐȣǗ Ǆ",
      "Ȣ ǘǄ",
      "ȯǛ Ʒ",
      "ȯǖ ƽ",
      "6 ò",
      "ŊȦ ǖƦ",
      "b å",
      "n æ",
      "Ő Ȯǖ",
      "Ȩǘ Ǐ",
      "ȥǘ Ƶ",
      "U Þ",
      "Ő ȨǘƸ",
      "c í",
      "U Ü",
      "ȩ ǘƬ",
      "Ø Ȯ",
      "n ì",
      "Ŏ ȯǘǊ",
      "ǟ Ʈ",
      "Ŋ Ȩ",
      "ȥ ǡƦ",
      "g ë",
      "Ǟ ƫ",
      "Ȧ ǡƦ",
      "ȫ ǙǊ",
      "ȩǗ Ʊ",
      "ȡǖ Ʒ",
      "Ȫǘ Ǔ",
      "ŐȞ ǖǊ",
      "ï Ȭ",
      "Ȥǖ Ʒ",
      "Ȣ ǘƬ",
      "ȤǗ Ǔ",
      "Ȧ Ǚƾ",
      "Ñ Ȩ",
      "Ő ȯǘƾ",
      "ǟ ǒ",
      "Ȥ ǘƦ",
      "ŐȨǗ Ƭ",
      "ȤǗ Ƶ",
      "Ƞǘ Ǖ",
      "ȥ ǡƾ",
      "Ȫ ǘǄ",
      "l é",
      "Ő ȯǖƬ",
      "ȧǛ ǉ",
      "Ȥǖ Ƶ",
      "ȢǗ Ǔ",
      "Ù Ȟ",
      "Ǥ Ư",
      "ȞǗ ƻ",
      "Ȣǘ Ǔ",
      "ñ Ȩ",
      "Ő șǗ",
      "ǝ Ǒ",
      "ȢǗ Ƶ",
      "Ǣ ƹ",
      "ǩ Ʃ",
      "l î",
      "Ŭ ș",
      "c â",
      "f ã",
      "l ë",
      "Ö Ȝ",
      "ǭ Ǖ",
      "ȯ ǜƦ",
      "ŐȬ ǖƲ",
      "Ț ǖǐ",
      "ȡǗ Ǎ",
      "Ŋȧ ǖƦ",
      "Ō ȦǖƲ",
      "Ȯ ǘƲ",
      "Ȥ Ǜǐ",
      "țǗ Ƭ",
      "Ȭǘ ƻ",
      "Ő ȨǘƬ",
      "f ß",
      "ȧǛ ƻ",
      "Ȣǖ ǁ",
      "G Õ",
      "f ð",
      "ñ ȩ",
      "ǫ ƽ",
      "Ȩǖ Ǖ",
      "Z î",
      "Ñ ȩ",
      "7 é",
      "Őț ǖǄ",
      "Ȧǘ ǉ",
      "& ×",
      "ȠǗ Ǐ",
      "ŐȜ ǖƲ",
      "ñ ȡ",
      "Ȭ ǖǄ",
      "ȭ ǡǊ",
      "Ŏ ȯǘƲ",
      "ǧ ǆ",
      "Ō ȩǖǊ",
      "ȧ ǧƦ",
      "ȣǗ ǃ",
      "ȢǗ ƽ",
      "ȟǖ Ǔ",
      "ŉ ȦǗƾ",
      "Ó Ȟ",
      "ǥ Ƨ",
      "ȠǗ ǃ",
      "ȫ Ǚƾ",
      "Ȣ ǛƸ",
      "Ȣ ǖƯ",
      "ȯǖ Ʒ",
      "Ō ȭǖ",
      "ȢǗ Ʊ",
      "țǗ Ǌ",
      "ȥǘ ǁ",
      "Ȯ ǘǊ",
      "ȭǘ Ǉ",
      "ä Ș",
      "Ȣǘ Ƶ",
      "Ǩ Ǐ",
      "ȢǗ ǉ",
      "Ȧǖ Ǐ",
      "ȟ ǘƲ",
      "ȥǛ ǉ",
      "Őȭ ǖƾ",
      "ȧ ǧƾ",
      "Y í",
      "æ Ș",
      "ȤǗ Ǖ",
      "Ŭ țǖ",
      "ŉ ȣǗƦ",
      "Ȥ Ǜƾ",
      "ȭǗ ƻ",
      "Ŋ Ȯǖ",
      "Ȧǘ Ʊ",
      "ȝǖ ƻ",
      "Őȭ ǖƦ",
      "ȟ ǘƾ",
      "Ȥ ǘǄ",
      "ȦǛ ǉ",
      "Ȯ ǖƦ",
      "ȧ ǖƯ",
      "Ȣǖ Ƶ",
      "ȫ ǡǊ",
      "ȢǗ ǁ",
      "Ȯ ǛǊ",
      "ȯ ǟǊ",
      "Őȥ ǖƬ",
      "ȝǗ Ư",
      "ȯǘ ǒ",
      "ò ȝ",
      "ȟǖ ǁ",
      "Ő ȯǘƦ",
      "ǝ ƹ",
      "ǟ ƻ",
      "Ȧ ǖƯ",
      "ȠǗ ǒ",
      "Ȣǖ Ǔ",
      "á ș",
      "Ő ȨǘǄ",
      "Ȯ ǘƾ",
      "ȬǗ Ǉ",
      "è Ȑ",
      "Ō ȧǖǊ",
      "ȣ Ǚƾ",
      "ǥ ƿ",
      "Ƞ ǡǊ",
      "ȯǘ ƺ",
      "ȧǗ ǆ",
      "ŐȬ ǖƾ",
      "Û ȭ",
      "ß Ș",
      "Ȥǖ ǁ",
      "ǧ ǂ",
      "ȫǖ Ǉ",
      "Ō ȬǗǊ",
      "Ǥ ǆ",
      "ȧǖ Ǎ",
      "Z á",
      "c ç",
      "ȥǘ Ʊ",
      "0 ç",
      "v ò",
      "ǧǕ V",
      "Ȥǖ Ǔ",
      "Ȩǖ Ʒ",
      "Ő ȯǖǐ",
      "ȫǗ Ǔ",
      "Ȣǘ ǁ",
      "ǡ ǀ",
      "ȡǘ ǁ",
      "ȫ ǟƦ",
      "Ȥǘ Ǔ",
      "Ŝ ȗǗ",
      "ȯǖ Ǐ",
      "ȥ ǖƯ",
      "ȫ ǟǊ",
      "Ǚ ƹ",
      "ȚǗ Ʋ",
      "L Á",
      "Ñ Ȟ",
      "ȢǗ ƺ",
      "6 ù",
      "Ø Ȭ",
      "í ț",
      "ȚǗ Ƭ",
      "ŉȦ ǖƦ",
      "g à",
      "ȟ ǘƸ",
      "ȦǙ ǒ",
      "Ȧ ǛƬ",
      "ŐȡǗ ƾ",
      "ȣǖ Ǐ",
      "ȡǖ ǃ",
      "țǗ Ǆ",
      "I Î",
      "ȩǗ Ʒ",
      "ȥǖ Ǎ",
      ") ÷",
      "ñ ȧ",
      "Ȣǖ Ʒ",
      "ǣ ǃ",
      "ȧǛ Ǉ",
      "ȧǘ ǉ",
      "ŐȟǗ Ʋ",
      "ȠǗ Ʃ",
      "ǝ ǅ",
      "0 ò",
      "Ȣ ǘƦ",
      "Őȥ ǖǐ",
      "Ǚ Ǒ",
      "ǡ ƭ",
      "ȤǗ ǃ",
      "ȪǗ Ǔ",
      "ǟ Ʃ",
      "ȩǛ ǉ",
      "ō ȯǖǊ",
      "v ê",
      "ǜ ƶ",
      "Őȧ ǖǄ",
      "v ß",
      "ǣ ƽ",
      "ŐȜ ǘ",
      "f à",
      "Ó Ȫ",
      "Ŏ ȯǗǊ",
      "ȧǗ Ǐ",
      "Őȧ ǖƬ",
      "ȡǘ Ǔ",
      "ȣǖ ǃ",
      "Ǯ Ƭ",
      "Ȝǖ Ǉ",
      "Ǣ ƭ",
      "ȣǙ ƺ",
      "ȪǗ ǉ",
      "ȫǖ ƻ",
      "ȯǙ Ʊ",
      "g á",
      "G Á",
      "Ʀ U",
      "Ȯ Ǜƾ",
      "Ǣ ƿ",
      "ȝ ǖƯ",
      "ȡǖ Ǎ",
      "ȯǝ Ƹ",
      "Z í",
      "ŋ ȨǗǊ",
      "ȩǗ ƽ",
      "ȫ ǙƲ",
      "Ƞǖ Ʈ",
      "ȡǖ ƺ",
      "ȯǙ ǉ",
      "K Á",
      "ȩǗ ǁ",
      "J Î",
      "ū ȘǗ",
      "ȩǘ ǉ",
      "ǧ ƨ",
      "ȯǙ ƻ",
      "ȥǘ ǉ",
      "è Ț",
      "ȟ ǘǊ",
      "ȧǛ Ʊ",
      "ȥǗ Ǐ",
      "6 ð",
      "ȫǗ Ƶ",
      "ȣǘ Ǖ",
      "Ō ȯǛǊ",
      "Ǡ ǁ",
      "ȣǙ ǒ",
      "ŊȦ ǖƾ",
      "Ȥǖ Ǎ",
      "ȩǘ ǁ",
      "R ç",
      "ȣǗ ƫ",
      "ȟǖ Ƶ",
      "ŐȬ ǖǊ",
      "ȥǗ ǃ",
      "ȤǗ Ǐ",
      "ȟǘ Ǔ",
      "ȤǗ ƺ",
      "ȡǖ Ǐ",
      "ǩ Ʒ",
      "ȥǗ ƺ",
      "ǧƽ V",
      "ȣ ǡƲ",
      "Ȩ ǝƲ",
      "ȡǗ Ʊ",
      "Ø ȭ",
      "ŉ ȨǘƦ",
      "Ǚ Ǉ",
      "Ǡ ƫ",
      "ȣǖ ƺ",
      "K Û",
      "v Ý",
      "Ő ȯǗƸ",
      "ȜǗ Ư",
      "ȥǗ Ǖ",
      "ȯ ǟƾ",
      "ŐȬǗ Ʀ",
      "Ȭǘ Ǉ",
      "ȢǗ Ʒ",
      "1 ç",
      "ȚǗ ƾ",
      "ȧǘ Ʊ",
      "0 ó",
      "Ō ȬǗƲ",
      "ȥǖ Ǐ",
      "E Ù",
      "ï ȭ",
      "â Ș",
      "ȥǘ Ǎ",
      "Ō ȧǖƲ",
      "ǯ Ʃ",
      "ȧǖ Ǐ",
      "ŉ Ȯǖ",
      "Ŏ ȩǖƲ",
      "Ȥ ǛƸ",
      "ȥǗ Ǎ",
      "ȝǖ Ǉ",
      "ŐȟǗ Ƹ",
      "ȪǗ Ʊ",
      "0 æ",
      "ŉ ȧǖƦ",
      "ŉ ȯǖƸ",
      "Ȫ ǘƬ",
      "ŐȞ ǖƦ",
      "ȨǗ ƫ",
      "Őȧ ǖǐ",
      "Ǩ ƹ",
      "ȥ ǡǊ",
      "Ȟǖ Ǉ",
      "L À",
      "ȯǛ ǃ",
      "ǩ Ʈ",
      "å Ț",
      "Ȯ ǛƦ",
      "Ŋ ȩǖ",
      "ȡǗ Ʈ",
      "é ș",
      "Ȯ ǛƲ",
      "Ȩǘ ǒ",
      "Ý Ș",
      "ȭ ǖƬ",
      "Ŋ ȨǛƾ",
      "Î Ƞ",
      "Ƞǖ ǆ",
      "Ŋ ȯǗǊ",
      "ȧǗ Ǖ",
      "ǚ ǎ",
      "Ȧǖ ǃ",
      "Ŋ ȯǘƲ",
      "Ȩǖ Ʃ",
      "Ȥǘ Ʊ",
      "ß Ȑ",
      "ȧǖ ǃ",
      "õ Ȭ",
      "n è",
      "Ő Ȩǘǐ",
      "ȭǗ Ǉ",
      "Û ȯ",
      "ȨǙ ǉ",
      "ȡ ǛǊ",
      "Ñ ȝ",
      "ŋ ȯǖǊ",
      "ȯǘ Ʈ",
      "ȫǗ ǁ",
      "Ŋȩ ǖƾ",
      "Ȝ ǖƯ",
      "ȡǗ ǆ",
      "Ȯ ǖƾ",
      "Ƞǘ Ʊ",
      "v è",
      "Ŋ ȯǘǊ",
      "Ǥ Ǐ",
      "6 ó",
      "Őȝ ǖƾ",
      "ȦǙ ƺ",
      "ȨǛ Ʃ",
      "ǪƦ V",
      "ô ȣ",
      "Y î",
      "Ŭ ȘǗ",
      "ŐȣǗ ǐ",
      "ȑ ǖ",
      "Ȫ ǙǊ",
      "ȚǗ Ʀ",
      "ȦǛ Ǐ",
      "ȢǗ Ǖ",
      "Ȭ ǖƬ",
      "ȯǙ Ư",
      "ȣǖ Ʃ",
      "å Ȑ",
      "õ ȟ",
      "Ȭ ǛƬ",
      "Ȧǘ Ǖ",
      "ï Ȟ",
      "ô Ȧ",
      "Ŏ ȩǖǊ",
      "Ȫǖ ƻ",
      "Ȧǘ Ʒ",
      "ŐȬ ǖƦ",
      "ȨǞ Ƹ",
      "ȡǗ ǉ",
      "0 ì",
      "Ȫǘ ǁ",
      "Ǩ Ƶ",
      "Õ ȟ",
      "ȯ Ǣƾ",
      "Ȥǖ ǃ",
      "á Ȑ",
      "Ȥ ǖƯ",
      "p ò",
      "ȭ ǘƬ",
      "Ȯ Ǜǐ",
      "Ȥǖ Ǐ",
      "Ŝ ȕ",
      "Ș ǖƸ",
      "Ȣ ǛƦ",
      "Ȫǘ Ƶ",
      "Z ß",
      "ȫ ǚǊ",
      "ȨǙ Ʊ",
      "ȥǛ Ǐ",
      "ǥ ƫ",
      "Ȥ ǘƬ",
      "ǫƦ 5",
      "6 î",
      "ǢƦ U",
      "ȚǗ Ǌ",
      "ȦǛ Ʊ",
      "Ŏ Ȭǖ",
      "Ǡ Ǉ",
      "ȫ ǚǐ",
      "ǡƾ U",
      "Őț ǖǐ",
      "Ȩǡ ǉ",
      "Ŝ ȘǗ",
      "K ß",
      "ȯǗ ƫ",
      "ȩǗ Ǎ",
      "Őȝ ǖƲ",
      "Ȩǝ Ƹ",
      "M ð",
      "Ȫ ǛƬ",
      "Ȣǘ Ǎ",
      "Ŋ ȯǗƲ",
      "Ǥ Ƨ",
      "Ȩǘ ǃ",
      "ŋ ȯǖƲ",
      "6 ü",
      "ê ț",
      "Þ Ț",
      "ȩǘ Ʊ",
      "ř ȟǖ",
      "Ȭ ǡƦ",
      "Ȥǘ ǉ",
      "Þ ȯ",
      "ȯǘ ǃ",
      "1 ä",
      "p ð",
      "Ȫ ǡƦ",
      "ǩ Ƶ",
      "M ë",
      "ȤǛ ǉ",
      "ȧǗ ǒ",
      "ȥǗ Ʈ",
      "Ō ȯǛƲ",
      "Ŏ ȭǖ",
      "g ã",
      "Ǚ ǎ",
      "Ȧǘ ƽ",
      "Ȩǖ Ǐ",
      "Ƞǖ ǒ",
      "ȪǗ ƽ",
      "ȟǘ Ƶ",
      "1 æ",
      "ǔ U",
      "Ǜ ǁ",
      "ŎȮ ǖƲ",
      "ȯǛ Ʃ",
      "Ƞǘ ǉ",
      "ȪǛ ǉ",
      "T Ó",
      "Ȫǘ Ǎ",
      "C ï",
      "ō ȯǖƲ",
      "Ȥǘ ǁ",
      "Þ ȭ",
      "ȡǗ Ʒ",
      "ŐȬǗ Ǌ",
      "ñ ȟ",
      "0 ä",
      "p ô",
      "ŉ ȯǘƾ",
      "Ø Ț",
      "ǡǊ U",
      "Ȣǖ Ǎ",
      "Ÿ țǖ",
      "ȢǗ Ǎ",
      "ȣǘ ǉ",
      "ã Ȑ",
      "ū Ȗǖ",
      "ȠǗ ƫ",
      "ȫǛ ǉ",
      "ȯǙ ƽ",
      "Ŭ șǖ",
      "ŉ Ȩǘƾ",
      "ŐȚ ǘ",
      "Ǡ ǒ",
      "ȩ ǛƬ",
      "Ȧǖ Ʃ",
      "Ȣǖ ǃ",
      "ȯǜ Ƹ",
      "ȩǘ Ƶ",
      "F Ú",
      "ŎȮ ǖǊ",
      "ȥǘ ƽ",
      "l ð",
      "ř ȯǖƦ",
      "ȥǖ ǃ",
      "Ȥǘ Ǖ",
      "ȥǗ ǒ",
      "ȪǗ Ƶ",
      "ǧ ƪ",
      "ȩǗ Ǐ",
      "R ó",
      "v á",
      "ȜǗ ƻ",
      "R ì",
      "ŐȜ ǖƾ",
      "Ȥǘ ƽ",
      "A Ê",
      "J É",
      "ǥ ǉ",
      "ȫ ǚƲ",
      "Ŋȧ ǖƾ",
      "I É",
      "Ȧǖ ƺ",
      "Ț ǖƦ",
      "ȣǘ Ʊ",
      "Ó ȝ",
      "ȩǗ Ǖ",
      "ȟ ǖƯ",
      "Ȭ ǘǄ",
      "R ò",
      "Ù ȧ",
      "Ȩǘ ƫ",
      "ȧǛ Ǐ",
      "ȡǗ ƽ",
      "ç ș",
      "ȧǛ ƽ",
      "Ŋ ȡ",
      "Ƞ ǡƾ",
      "Ù ȝ",
      "ȯǙ Ǉ",
      "ȤǗ Ǎ",
      "Ǟ ƺ",
      "K ä",
      "Ƞǘ ƽ",
      "v ã",
      "ǡ Ƽ",
      "ǝ Ǔ",
      "ȤǗ ƫ",
      "ȪǗ ǁ",
      "M ò",
      "Ǫ Ʊ",
      "ŐȟǗ Ǌ",
      "ȥǗ ǆ",
      "ȡǘ Ǎ",
      "ȧǗ ǃ",
      "ȟǘ ǁ",
      "Ȯ ǘƦ",
      "ȣǘ Ʒ",
      "Ȫǖ Ǉ",
      "Ô ȡ",
      "ȫǗ Ǎ",
      "ȢǗ Ʈ",
      "Ŝ șǗ",
      "Ô Ȧ",
      "6 ë",
      "J Â",
      "ȫ ǟƾ",
      "Ÿ ȗǗ",
      "ȝǗ ƻ",
      "Ƞǘ ƺ",
      "K Ý",
      "ū Ȗ",
      "Ȥǘ Ƶ",
      "v Ú",
      "v ì",
      "Ŭ Șǖ",
      "ȞǗ Ǉ",
      "Ȩǖ ǃ",
      "Ǡ Ʈ",
      "Ƞ ǡƦ",
      "ǢƦ V",
      "ȥǘ Ǖ",
      "Ȩǝ Ǆ",
      "Z ê",
      "ȫǗ Ʊ",
      "B ô",
      "ȨǙ ƻ",
      "Ȕ ǘ",
      "ȦǛ ƽ",
      "ȧǗ Ʃ",
      "Ñ Ȫ",
      "ŋ ȨǗƲ",
      "ȧ ǙƦ",
      "ȪǗ Ǎ",
      "v å",
      "Ǡ Ƶ",
      "7 û",
      "ȯǘ ǆ",
      "ȯǜ Ǆ",
      "á Ș",
      "ŐȜ ǖǊ",
      "Ǚ ǅ",
      "Ǣ Ǒ",
      "Ǚ Ǔ",
      "ȗ ǖƸ",
      "Ȧǘ Ǐ",
      "Y ê",
      "ȡǗ Ǖ",
      "Ȩ ǝƾ",
      "Ȭ ǘƬ",
      "ȯ ǜƾ",
      "Ȣǘ Ʃ",
      "Õ Ȟ",
      "ǩ ƫ",
      "ȩ Ǚƾ",
      "ȫǛ Ǉ",
      "ȯ Ǥƾ",
      "ȧǛ Ư",
      "Ǚ Ƶ",
      "ȧǛ Ǎ",
      "U Ï",
      "Ǡ ƻ",
      "Ȩǘ Ʈ",
      "ȭǘ Ǔ",
      "ŐȟǗ ƾ",
      "T Ï",
      "ŐȫǗ Ǌ",
      "Ŏ ȧǖǊ",
      "ȝǗ Ǉ",
      "ȥǛ Ʊ",
      "ȢǗ ǃ",
      "Ô ȣ",
      "ȫ ǟƲ",
      "ȧǘ ƽ",
      "U ÿ",
      "Ș ǖǄ",
      "ŐȡǗ Ʀ",
      "Ŋ ȯǘƸ",
      "ŐȬǗ ƾ",
      "ȟǗ ǆ",
      "R í",
      "Ȣǖ Ǐ",
      "ȯǙ Ǖ",
      "Ȫ ǙƲ",
      "Ȧǘ ƺ",
      "ȫǛ ƻ",
      "ȩ ǙǊ",
      "ȫ ǚƾ",
      "ȣǖ ƫ",
      "ô Ȥ",
      "ŐȦ ǘƦ",
      "ï ȝ",
      "ȧǛ ǁ",
      "ȟǖ Ʊ",
      "ř ȣǗƾ",
      "ȤǛ Ǐ",
      "Ÿ șǖ",
      "ȯǞ Ǆ",
      "Z å",
      "Ü Ȭ",
      "Þ Ȯ",
      "Ȫ Ǚƾ",
      "ȣǖ Ʈ",
      "ȯǝ Ǆ",
      "Ȣǖ ƺ",
      "ȥǘ Ʒ",
      "6 ö",
      "Y ð",
      "õ ȭ",
      "Ǚ ƶ",
      "ș ǖƸ",
      "ȦǙ ǉ",
      "ȪǗ Ʒ",
      "Ƞǘ ǒ",
      "ŐȦ ǘƾ",
      "Y å",
      "ȤǗ Ʈ",
      "U Ñ",
      "ó Ȭ",
      "ȡǗ ǃ",
      "ǥ ǀ",
      "ȥ ǙƲ",
      "ȟǗ Ʈ",
      "n ç",
      "R æ",
      "ǚ ƶ",
      "ǥ ǆ",
      "K À",
      "ȢǗ ǆ",
      "ȤǗ ǆ",
      "Ü Ț",
      "Y á",
      "Ȟ ǖƯ",
      "ȥ ǛƬ",
      "ȢǗ Ǐ",
      "ŉ ȧǖƾ",
      "Ǫ ǔ",
      "Ȝǘ Ư",
      "ò Ȝ",
      "ǩ Ƨ",
      "ȣǖ ǆ",
      "ȩǛ Ʊ",
      "Ǫ Ǌ",
      "Ȫ ǡƾ",
      "u ë",
      "ȯ ǥƦ",
      "Ǥ ƺ",
      "Õ ȧ",
      "Û Ȯ",
      "Ȩǘ ǆ",
      "ȯǚ ǉ",
      "K Ú",
      "Ș ǖƬ",
      "ș ǖǄ",
      "ȡǖ ƫ",
      "R ï",
      "ȧǛ Ǔ",
      "ȧǘ Ʒ",
      "ǝ ǂ",
      "Őȝ ǖǊ",
      "Ȫ ǚǊ",
      "ó ȭ",
      "ŉ ȡǗǐ",
      "ŉȦ ǖƾ",
      "b ß",
      "ǡ ƴ",
      "ȚǗ Ǆ",
      "ȠǙ ƺ",
      "1 ì",
      "ȡǖ Ʃ",
      "Ő ȖǗ",
      "C Ë",
      "ȗ ǖƬ",
      "ȥǗ ƫ",
      "ȩǘ ƽ",
      "Ȭǘ Ǔ",
      "ŐȠǗ Ʋ",
      "b ö",
      "c ì",
      "ȫǗ ǉ",
      "Ô Ȥ",
      "ȣǖ ǒ",
      "R ä",
      "ȫ ǡƲ",
      "ȩ ǡƦ",
      "ǜ ƭ",
      "ȯǙ ƶ",
      "ȫǖ Ǔ",
      "Ȥǘ Ǎ",
      "6 ñ",
      "ǟ ǎ",
      "ȫ ǙƦ",
      "ŐȦǗ Ƹ",
      "ȣ ǫƦ",
      "Ï Ȥ",
      "Ŋ ȨǖƸ",
      "ǭ Ʋ",
      "ȣǘ ƺ",
      "Ǚ ƫ",
      "ȯ ǞǊ",
      "ǫǕ U",
      "ǡ ƪ",
      "Ǥ Ʈ",
      "ȡǖ ǆ",
      "Ü ȭ",
      "ȣǘ ƽ",
      "Ȫǘ Ʊ",
      "ř ȯǖƲ",
      "ȥ ǙǊ",
      "Ŏ ȯǗƲ",
      "ǥ Ʈ",
      "ȟǗ Ʒ",
      "ȩǘ Ǎ",
      "Ȝǘ ƻ",
      "ȩǗ ƺ",
      "5 ë",
      "ǪƦ W",
      "ȯ Ǟƾ",
      "ȧǛ Ƶ",
      "Ő ȯǘƸ",
      "Ȧǖ ƫ",
      "Ǟ ǒ",
      "Őȝ ǖƦ",
      "Ȝ ǘƲ",
      "ȡ Ǜƾ",
      "ŐȠǗ ƾ",
      "Ȫǘ ǉ",
      "ȡǖ ǒ",
      "c è",
      "î ț",
      "n ä",
      "Ȣ ǛǄ",
      "ȫǖ Ƶ",
      "ǡ ƨ",
      "ȧǛ Ǖ",
      "ȥǖ ƺ",
      "ȩǖ Ǔ",
      "ȝǘ Ư",
      "Ȝǖ Ƶ",
      "Ŏ ȦǖƲ",
      "v Ò",
      "ȯǙ Ǔ",
      "ŐȠǗ Ǌ",
      "ȣǙ ǆ",
      "ȩ ǙƲ",
      "C ì",
      "Ŏ ȧǖƲ",
      "ȩǛ ƽ",
      "ȩ ǚǊ",
      "Ȝ ǘƾ",
      "ȡ ǛƲ",
      "Ȣ ǛƬ",
      "ș ǖǐ",
      "Ȧǘ Ʈ",
      "n ê",
      "g è",
      "ȟǗ Ʃ",
      "ȡǖ Ʈ",
      "ȣǛ ǉ",
      "ȩ ǚƾ",
      "Ŋ ȨǡƦ",
      "ǫ Ǆ",
      "ȨǙ ƽ",
      "ȟǖ Ǎ",
      "ȫǛ Ư",
      "ȫǗ ƽ",
      "Ȩ ǞƦ",
      "ȫ ǚƸ",
      "Ï Ȧ",
      "Ȝ ǘƸ",
      "ȯǜ ǐ",
      "Z ã",
      "ǪƦ U",
      "l ç",
      "ȩǗ ǃ",
      "ȟǘ Ǎ",
      "ŉ ȣǗƾ",
      "Ȝ ǘǊ",
      "Ȭ ǙƲ",
      "ȩǛ Ǐ",
      "ȥǘ ƺ",
      "ȭ ǙƲ",
      "ȤǛ Ʊ",
      "A ï",
      "ȩǖ ǁ",
      "ȭǘ ǁ",
      "ǡ ǔ",
      "ȡ Ǜǐ",
      "Ȥ ǛƦ",
      "1 í",
      "U Ù",
      "ȫǗ Ʒ",
      "ȯ ǞƲ",
      "ȯǖ ǃ",
      "Ŏ ȦǖǊ",
      "B õ",
      "Ǭ Ʋ",
      "ȡǗ Ʃ",
      "Ö ț",
      "ȬǗ Ǔ",
      "ȧǙ ǉ",
      "L Ô",
      "v Ô",
      "ǚ ǋ",
      "ȥǛ Ʒ",
      "Ȝǖ ǁ",
      "Ŏ Țǖ",
      "Î Ȧ",
      "ȚǗ ǐ",
      "Ÿ Șǖ",
      "Z ì",
      "ȥ Ǚƾ",
      "M í",
      "Ǣ ǈ",
      "Ȥǖ ƫ",
      "Ŋȫ ǘƦ",
      "ŉȫ ǖǊ",
      "K é",
      "ŉ ȯǖǄ",
      "ū ȕǖ",
      "ȨǙ Ư",
      "S é",
      "a é",
      "ǥ ǂ",
      "ȟǖ Ǖ",
      "Ȫǘ ƽ",
      "C ô",
      "5 î",
      "Ő ȕǖ",
      "Ƞǘ Ʒ",
      "ǧƾ Y",
      "Ō Țǖ",
      "ȡǗ Ǐ",
      "ȦǙ ǆ",
      "ȗ ǖǄ",
      "ȥǘ Ʃ",
      "ȟǖ ǉ",
      "ș ǖƬ",
      "ȪǗ ƺ",
      "ŐȠǗ Ƹ",
      "ȫǛ Ʊ",
      "ȣǘ Ǐ",
      "țǗ Ʀ",
      "ȯǢ Ʋ",
      "õ Ȟ",
      "1 ò",
      "ȯǙ Ǎ",
      "ŐȟǗ Ƭ",
      "Y ì",
      "Ǚ ƭ",
      "ȩ ǡƾ",
      "ȯǡ Ǖ",
      "Ȧǖ ǆ",
      "ȯǢ Ƹ",
      "0 è",
      "ȪǗ Ǐ",
      "ȥǙ ǒ",
      "Ǩ ǒ",
      "ȟ ǘǐ",
      "Ȟǖ Ƶ",
      "Ō ȨǛƲ",
      "ȯǙ ǎ",
      "ȯǖ ǒ",
      "ȦǛ Ǖ",
      "ŋ ȡǗǊ",
      "Ƽ V",
      "Ŝ ȯǖǊ",
      "Ȧǖ Ʈ",
      "Ô Ȣ",
      "Ō ȨǛǊ",
      "Ș ǖǊ",
      "Ȣǘ Ǖ",
      "Ȥ ǛǄ",
      "ȟǖ Ʒ",
      "Ŋ ȧǛƦ",
      "Ȧ ǙƦ",
      "ȟ ǘǄ",
      "Ȥǘ ƺ",
      "ȠǙ ǒ",
      "ȢǗ ǒ",
      "Ȥǘ Ʒ",
      "b á",
      "ǧ Ƶ",
      "ȥǛ ƽ",
      "Ǫ Ǔ",
      "ȟǗ Ʊ",
      "ū ȕ",
      "Ǚ Ǎ",
      "Ǡ ǋ",
      "ȞǗ Ƶ",
      "ȯǞ Ƹ",
      "1 õ",
      "Ő ȨǛƲ",
      "ȨǞ Ǆ",
      "ǥ Ǐ",
      "f Ý",
      "Ș ǖƾ",
      "ȯǗ ƶ",
      "ȨǛ ƫ",
      "ȜǗ Ǉ",
      "ã ș",
      "Ǣ Ƶ",
      "Ō ȝǖ",
      "Ǩ Ǔ",
      "ȤǗ ǒ",
      "ř ȯǖǊ",
      "ȩ ǡǊ",
      "FÇ ȫ",
      "5 ó",
      "G Ò",
      "Ǭ Ǖ",
      "ȫǛ Ǎ",
      "ȨǙ Ǖ",
      "ȣǘ ǒ",
      "Î ȣ",
      "L Ð",
      "ǯ ǐ",
      "ǝ Ƨ",
      "Ȭ ǡƾ",
      "Ȧǖ ǒ",
      "ȣǘ ǆ",
      "Ï ȣ",
      "Ȯ ǘƸ",
      "ȬǗ Ƶ",
      "Ȫ ǡǊ",
      "Ǣ ǂ",
      "ȧǘ Ǖ",
      "Ș ǖǐ",
      "ȩǗ ǆ",
      "Ȭǘ Ƶ",
      "Ǜ ǆ",
      "ȧǛ ǃ",
      "ȫǛ ƽ",
      "ř ȦǗƦ",
      "ȯǘ ƫ",
      "ǯƦ Y",
      "ǝ ǋ",
      "ȩǖ ƽ",
      "ȦǛ Ʒ",
      "S ë",
      "Ƞǘ Ʈ",
      "Ȟǘ Ư",
      "Ȝ ǘǄ",
      "ȩǛ Ǖ",
      "0 ñ",
      "ȧǖ ƺ",
      "Ȣ Ǚƾ",
      "ȤǗ Ʃ",
      "ȯǝ ǐ",
      "ȧǘ Ǐ",
      "Ȩǖ ƫ",
      "ȥǘ Ǐ",
      "ȥǖ Ʃ",
      "Ȣǘ Ʊ",
      "Ǫ Ƹ",
      "ǫ ƪ",
      "L Ò",
      "ț ǖƯ",
      "ȪǗ Ǖ",
      "Õ Ȩ",
      "ȟǖ ƽ",
      "Ō ȦǗƲ",
      "0 ô",
      "Ƞǘ ǆ",
      "B Í",
      "Y ß",
      "ȫǘ ǉ",
      "FÊ ȫ",
      "c ß",
      "ȜǗ ƺ",
      "S î",
      "ȥǗ Ʃ",
      "Ƞǘ Ǐ",
      "Ï ȡ",
      "ǝ ƿ",
      "Ǩ Ʃ",
      "Ȟǖ ǁ",
      "Ō ȯǖƾ",
      "ȨǙ Ǉ",
      "Ȝ ǘǐ",
      "C É",
      "Ȣǘ ǉ",
      "ȦǙ Ʊ",
      "Ȭ Ǚƾ",
      "ȟ ǘƬ",
      "FÌ ȫ",
      "ȩǘ Ʒ",
      "p î",
      "w î",
      "Ȥ ǙǊ",
      "ȭ Ǚƾ",
      "Ȭǘ Ǎ",
      "b ø",
      "Ȯ ǖƸ",
      "ȧǘ ƺ",
      "ȧǗ ƫ",
      "ȡǘ Ʃ",
      "7 ā",
      "Ǣ ǔ",
      "U Ó",
      "l í",
      "ȩǖ Ǎ",
      "țǖ ƻ",
      "v Î",
      "Ȩǚ ǉ",
      "ȥǖ Ʈ",
      "Ő ȯǘǄ",
      "ř ȣǗƦ",
      "Ÿ ȗǖ",
      "ȢǗ ƫ",
      "ŐȫǗ Ʋ",
      "A ò",
      "ǚ Ƴ",
      "ȥǙ ƺ",
      "ȟǗ ǉ",
      "ȟǖ ǃ",
      "ȣǘ Ʈ",
      "ǜ ǌ",
      "ŐȟǗ ǐ",
      "ȝ ǘƲ",
      "ȭ ǙǊ",
      "ȯǖ Ʈ",
      "ŉȫ ǖƸ",
      "Ȭ ǙǊ",
      "ȫǛ Ǖ",
      "FÊ Ȧ",
      "ǚ ƿ",
      "Ȫ ǚƾ",
      "Ȩǖ ƺ",
      "ŌȮ ǖƲ",
      "ŌȮ ǖǊ",
      "Y ã",
      "Ō ȯǙƲ",
      "ǟ ƿ",
      "Ǚ ǁ",
      "ǜ ƿ",
      "0 ê",
      "ȬǗ ǁ",
      "ȩǘ Ǖ",
      "p õ",
      "ȨǗ ƶ",
      "Ȥǖ ƺ",
      "ŉȫ ǖƲ",
      "B ñ",
      "ȧ ǚǊ",
      "ŐȦǗ Ǆ",
      "ȥǖ ƫ",
      "Ǡ Ƨ",
      "ȟǖ ƺ",
      "0 õ",
      "R â",
      "Ǡ ƿ",
      "ȫǛ Ǔ",
      "ȥǘ ǒ",
      "ȯǢ Ƭ",
      "Ï Ȣ",
      "Ÿ ȝǖ",
      "ǝ ƭ",
      "M ô",
      "â ȗ",
      "Ƞ ǙǊ",
      "l ì",
      "Ő ȯǗƬ",
      "ȝ ǘƾ",
      "ȯ ǠǊ",
      "Ȣǖ Ʈ",
      "ǝ ǌ",
      "Ȫ ǚǐ",
      "Ǡ Ư",
      "Ǩ Ư",
      "ȧǖ Ʃ",
      "ȫǘ Ʊ",
      "ȥǛ ǃ",
      "Ǡ Ʃ",
      "ȫǗ ƺ",
      "Ȧǘ ǒ",
      "ï Ȯ",
      "Ő ȯǗǄ",
      "Ô ȟ",
      "Ŝ ȕǖ",
      "Ȧ ǡƲ",
      "ȭǗ Ǔ",
      "v õ",
      "Ő ȯǗǐ",
      "Ȧǘ ǃ",
      "ŜȠ ǖƲ",
      "ř Ȟǖ",
      "ș ǖƲ",
      "Ȫǘ Ʒ",
      "ȥǙ ǉ",
      "Ô Ȟ",
      "ȮǗ Ư",
      "ȣǛ Ǐ",
      "Ȫ ǙƦ",
      "Ō ȯǙǊ",
      "ȯǖ ǆ",
      "ǚ ƴ",
      "ș ǖƾ",
      "ȩ ǚƲ",
      "ȫǛ Ƶ",
      "ŐȜ ǖƦ",
      "v ï",
      "Ŋ ȧǘƾ",
      "Ǜ ƺ",
      "Ŭ ȕ",
      "ȯǖ ƺ",
      "ř ȯǖƾ",
      "u é",
      "ǡ ư",
      "ȯǖ ƫ",
      "ȩǖ Ƶ",
      "ȯǗ ǎ",
      "ȫǗ Ǐ",
      "ȤǙ ǆ",
      "Ȣǖ ƫ",
      "Ô ȥ",
      "Ȣǖ ǆ",
      "ȪǛ Ǐ",
      "Ȟǘ ƻ",
      "' ÷",
      "ȝ ǘƸ",
      "ǟ ǋ",
      "ȡ ǛƸ",
      "ŉ ȡǗƦ",
      "Ƞ ǡƲ",
      "ȧǛ Ʒ",
      "v ñ",
      "ȯǙ Ʒ",
      "ȬǗ Ʊ",
      "5 ð",
      "Ȩǖ Ʈ",
      "7 ý",
      "ô Ȣ",
      "ř ȦǗƾ",
      "Ǥ Ǔ",
      "Ȧǘ ǆ",
      "ǩ Ǔ",
      "ȥǛ Ǖ",
      "ŜȠ ǖƬ",
      "Ǡ ƹ",
      "Ȯ ǛƸ",
      "ȩǙ ǉ",
      "B ó",
      "p ó",
      "ȩǗ Ʈ",
      "K á",
      "ß ȗ",
      "ř Ȝǖ",
      "ŐȧǗ Ʋ",
      "Ȓ ǘ",
      "ȧǖ Ʈ",
      "ǫ Ʊ",
      "ȪǗ Ʈ",
      "ǟ ǅ",
      "ȯǡ ǉ",
      "ǟ ƹ",
      "ȯǙ Ǐ",
      "ȭǗ ǁ",
      "FÌ Ȧ",
      "ȤǙ ǒ",
      "ŐȚ ǖƲ",
      "ș ǖǊ",
      "ȣǛ Ʊ",
      "ô ȥ",
      "ȩǗ Ʃ",
      "c ï",
      "p ë",
      "ȫǛ ǁ",
      "ȦǛ Ǉ",
      "6 í",
      "ä ȗ",
      "Ő ȯǘƬ",
      "ȣǘ ǃ",
      "ȪǛ Ʊ",
      "b ú",
      "ȟǗ ƽ",
      "é Ș",
      "Ȫǘ Ǖ",
      "ŐȜǗ Ƭ",
      "ô Ȩ",
      "Ȣǖ Ʃ",
      "L Ö",
      "Ǩ ƫ",
      "Ȩǖ ǆ",
      "ȤǛ ƽ",
      "ȣ ǟǊ",
      "ǤƦ V",
      "Ȫǖ ǁ",
      "Ù Ȝ",
      "ŐȫǗ Ʀ",
      "ǜ ǂ",
      "Ȣ ǙǊ",
      "ȨǗ ǎ",
      "Ȭǘ ǁ",
      "F Ù",
      "FÇ Ȧ",
      "K ç",
      "ȬǗ ǉ",
      "ȩ ǚǐ",
      "ǟ Ǔ",
      "ŋ ȡǗƲ",
      "ǥ Ǔ",
      "Ȟ ǘƾ",
      "ð ț",
      "ǚ ǈ",
      "v à",
      "Ý ȗ",
      "ǟ ǌ",
      "ǣ Ʒ",
      "ȨǙ Ǔ",
      "ȤǙ ƺ",
      "ȤǙ ǉ",
      "Őȩ ǖƸ",
      "ȟ ǛǊ",
      "ȯ ǠƦ",
      "ǩ ǒ",
      "Ŋȯ ǡƾ",
      "ȩǖ Ǖ",
      "ǥƦ V",
      "ŐȠǗ Ƭ",
      "Ŋ ȧǘƦ",
      "Ő ȯǘǐ",
      "Ȯ ǘǐ",
      "ȯ ǟƲ",
      "ǚ ǌ",
      "ǜ ǈ",
      "Ŭ ȗǖ",
      "ȦǛ ǃ",
      "ȪǛ Ǖ",
      "b ù",
      "ǚ ǔ",
      "ȩǛ Ʒ",
      "Ȯǘ ƻ",
      "K æ",
      "M é",
      "ȫǘ ƽ",
      "ŐȟǗ Ǆ",
      "Ǭ Ƹ",
      "ȭǘ Ƶ",
      "v Ü",
      "Ö Ȭ",
      "à ș",
      "ǜ Ƨ",
      "ȞǗ ǁ",
      "Ș ǖƲ",
      "ȣ Ǚǐ",
      "ȫ ǚƦ",
      "Ȣǘ Ʒ",
      "Ŋ ȨǖǊ",
      "Ȟǘ Ǉ",
      "ȗ ǖǐ",
      "E À",
      "ȧǘ ǒ",
      "7 ÿ",
      "c ò",
      "v Õ",
      "ȥǙ ǆ",
      "7 ì",
      "ȨǙ Ʒ",
      "I È",
      "0 ï",
      "Ŋ ȯǗƸ",
      "ȥǖ ǒ",
      "Ǟ ǌ",
      "ȨǙ Ǐ",
      "ȟǖ ƫ",
      "ŐȦǗ ǐ",
      "Ȝǘ Ǉ",
      "6 ø"
    ]
  }
}